{"<unk>": 0, "<s>": 1, "</s>": 2, "<cls>": 3, "<sep>": 4, "<pad>": 5, "<mask>": 6, "<eod>": 7, "<eop>": 8, ".": 9, "(": 10, ")": 11, "\"": 12, "-": 13, "\u2013": 14, "\u00a3": 15, "\u20ac": 16, "\u2581": 17, "\u2581the": 18, ",": 19, "\u2581of": 20, "\u2581and": 21, "\u2581to": 22, "s": 23, "\u2581a": 24, "\u2581in": 25, "'": 26, "\u2581is": 27, "\u2581for": 28, "\u2581that": 29, "\u2581was": 30, "\u2581on": 31, "\u2581The": 32, "\u2581with": 33, "\u2581as": 34, "\u2581I": 35, "\u2581it": 36, "\u2581by": 37, "\u2581at": 38, "\u2581be": 39, "\u2581from": 40, "\u2581are": 41, "\u2581said": 42, "\u2581he": 43, "\u2581you": 44, "\u2581his": 45, "t": 46, "\u2581have": 47, "\u2581an": 48, "\u2581or": 49, "\u2581not": 50, "\u2581has": 51, "\u2581this": 52, "\u2581will": 53, "\u2581had": 54, "\u2581were": 55, "ing": 56, "\u2581but": 57, "\u2581their": 58, "\u2581which": 59, ":": 60, "\u2581who": 61, "\u2581her": 62, "\u2581they": 63, "\u2581can": 64, "\u2581one": 65, "d": 66, "\u2581In": 67, "ed": 68, "\u2581He": 69, "\u2581more": 70, "\u2581all": 71, "\u2581been": 72, "\u2581your": 73, "\u2581would": 74, "\u2581about": 75, "\u2581up": 76, "\u2581also": 77, "\u2581out": 78, "\u2581A": 79, "\u2581we": 80, "\u2581its": 81, "?": 82, "S": 83, "\u2581It": 84, "\u2581she": 85, "\u2581other": 86, "\u2581two": 87, "re": 88, "\u2581first": 89, "\u2581when": 90, "\u2581into": 91, "\u2581time": 92, "e": 93, "\u2581my": 94, "\u2581over": 95, "I": 96, ";": 97, "m": 98, "\u2581after": 99, "\u2581than": 100, "a": 101, "\u2581so": 102, "\u2581him": 103, "\u2581people": 104, "\u2581there": 105, "\u2581some": 106, "\u2581them": 107, "\u2581if": 108, "\u2581new": 109, "\u2581me": 110, "ly": 111, "\u2581do": 112, "\u2581what": 113, "\u2581only": 114, "\u2581like": 115, "\u2581no": 116, "y": 117, "er": 118, "\u2581year": 119, "\u2581our": 120, "\u2581could": 121, "\u2581This": 122, "\u2581years": 123, "\u2581any": 124, "\u2581just": 125, "\u2581back": 126, "\u2581most": 127, "\u2581U": 128, "\u2581last": 129, "\u2581But": 130, "\u2581where": 131, "\u2581may": 132, "\u2581get": 133, "\u2581before": 134, "\u2581through": 135, "!": 136, "\u2581then": 137, "th": 138, "\u2581three": 139, "\u2581made": 140, "\u2581percent": 141, "\u2581many": 142, "\u2581well": 143, "\u2581make": 144, "\u2581now": 145, "\u2581government": 146, "\u2581She": 147, "\u2581such": 148, "\u2581because": 149, "i": 150, "\u2581down": 151, "The": 152, "in": 153, "\u2581work": 154, "o": 155, "\u25811": 156, "\u2581against": 157, "\u2581New": 158, "\u25812": 159, "\u2581how": 160, "\u2581between": 161, "\u2581way": 162, "\u2581being": 163, "\u2581use": 164, "\u2019": 165, "\u2581these": 166, "/": 167, "\u2581under": 168, "\u2581We": 169, "\u2581should": 170, "\u2581while": 171, "\u2581very": 172, "\u2581million": 173, "1": 174, "\u2581know": 175, "\u2581even": 176, "\u2581off": 177, "\u2581much": 178, "\u2581used": 179, "n": 180, "\u2581during": 181, "\u2581take": 182, "\u2581If": 183, "2": 184, "\u2581world": 185, "\u2581those": 186, "\u2581United": 187, "\u2581part": 188, "ve": 189, "\u2581did": 190, "\u2581day": 191, "\u2581home": 192, "\u2581here": 193, "\u2581still": 194, "\u2581good": 195, "\u2581since": 196, "\u2581see": 197, "\u25813": 198, "\u2581around": 199, "\u2581They": 200, "\u2581You": 201, "es": 202, "\u2581right": 203, "\u2581state": 204, "\u2581second": 205, "\u2581long": 206, "\u2581both": 207, "\u2581including": 208, "\u2581And": 209, "\u2581want": 210, "\u2581us": 211, "al": 212, "r": 213, "\u2581need": 214, "ll": 215, "\u2581go": 216, "5": 217, "or": 218, "\u2581same": 219, "\u2581don": 220, "\u2581\u201c": 221, "\u2581help": 222, "\u2581going": 223, "\u2581own": 224, "\u2581_": 225, "\u2581company": 226, "\u2581high": 227, "\u2581As": 228, "\u2581information": 229, "\u2581team": 230, "\u2581each": 231, "\u2581think": 232, "3": 233, "\u2581country": 234, "\u2581life": 235, "We": 236, "\u2581four": 237, "\u2581There": 238, "\u2581end": 239, "\u2581On": 240, "\u258110": 241, "\u2581American": 242, "\u2581number": 243, "\u2581next": 244, "\u2581another": 245, "A": 246, "\u2581For": 247, "\u2581say": 248, "man": 249, "\u2581place": 250, "\u2581States": 251, "\u2581best": 252, "on": 253, "en": 254, "\u2581found": 255, "\u2581group": 256, "\u2581set": 257, "\u2581told": 258, "\u2581until": 259, "\u2581week": 260, "to": 261, "an": 262, "\u2581left": 263, "\u2581business": 264, "4": 265, "\u2581later": 266, "k": 267, "\u25814": 268, "\u2581too": 269, "ers": 270, "\u2581called": 271, "\u2581must": 272, "\u2581family": 273, "\u2581few": 274, "\u2581game": 275, "\u2581US": 276, "\u2581system": 277, "\u2581find": 278, "0": 279, "\u2581come": 280, "\u2581public": 281, "\u2581won": 282, "\u2581season": 283, "\u25816": 284, "\u2581city": 285, "\u2581without": 286, "\u2581never": 287, "\u2581took": 288, "It": 289, "\u2581area": 290, "\u2581head": 291, "\u2581again": 292, "\u2581little": 293, "\u2581several": 294, "year": 295, "\u2581At": 296, "\u2581school": 297, "\u2581five": 298, "g": 299, "\u2581every": 300, "\u2581came": 301, "\u2581China": 302, "\u2581local": 303, "\u2581name": 304, "the": 305, "\u25815": 306, "\u2581days": 307, "\u2581away": 308, "\u2581support": 309, "\u2581top": 310, "\u2581When": 311, "\u2581great": 312, "\u2581York": 313, "\u2581didn": 314, "\u2581University": 315, "\u2581small": 316, "\u2581former": 317, "\u2581known": 318, "\u2581early": 319, "\u2581After": 320, "\u2581de": 321, "\u2581B": 322, "C": 323, "\u2581To": 324, "\u2581free": 325, "\u2581man": 326, "\u2581might": 327, "\u2581President": 328, "\u2581His": 329, "\u2581C": 330, "\u2581put": 331, "\u2581different": 332, "\u2581water": 333, "\u2581South": 334, "\u2581site": 335, "\u2581No": 336, "\u2581billion": 337, "\u2581look": 338, "\u2581World": 339, "\u2581members": 340, "\u2581children": 341, "6": 342, "\u2581really": 343, "\u2581market": 344, "\u2581got": 345, "\u2581So": 346, "\u2581D": 347, "\u2581service": 348, "\u2581says": 349, "\u2581power": 350, "\u2581show": 351, "\u2581better": 352, "N": 353, "\u2581play": 354, "\u2581held": 355, "\u2581money": 356, "\u2581That": 357, "\u2581does": 358, "\u2581something": 359, "\u2581National": 360, "\u2581officials": 361, "\u2581E": 362, "\u2581case": 363, "\u2581within": 364, "\u2581police": 365, "\u2581side": 366, "\u2581program": 367, "l": 368, "c": 369, "\u2581military": 370, "\u2581give": 371, "\u2581Friday": 372, "\u2581hand": 373, "\u2581order": 374, "\u2581war": 375, "\u2581Tuesday": 376, "7": 377, "\u258120": 378, "\u2581president": 379, "\u2581Monday": 380, "\u2581using": 381, "\u258115": 382, "\u2581major": 383, "\u2581Wednesday": 384, "8": 385, "able": 386, "\u2581available": 387, "\u2581went": 388, "\u2581Thursday": 389, "\u2581least": 390, "\u2581night": 391, "\u2581large": 392, "\u2581third": 393, "\u2581All": 394, "\u2581P": 395, "\u2581past": 396, "\u2581points": 397, "\u2581car": 398, "\u2581months": 399, "\u2581important": 400, "\u2581become": 401, "\u2581began": 402, "\u2581became": 403, "\u2581six": 404, "\u2581following": 405, "\u2581things": 406, "\u201d": 407, "\u2581John": 408, "h": 409, "\u2581full": 410, "\u2581along": 411, "\u2581women": 412, "\u2581political": 413, "\u2581M": 414, "us": 415, "\u2581men": 416, "D": 417, "\u2581line": 418, "\u2581report": 419, "\u2581far": 420, "\u258112": 421, "\u2581un": 422, "\u2581face": 423, "\u2581point": 424, "\u25817": 425, "\u2581always": 426, "\u2581already": 427, "\u2581May": 428, "\u2581include": 429, "\u2581T": 430, "\u2581law": 431, "\u2581month": 432, "\u2581open": 433, "\u2581lot": 434, "\u2581keep": 435, "\u2581One": 436, "\u2581often": 437, "\u2581State": 438, "\u2581national": 439, "\u2581international": 440, "\u2581making": 441, "\u2581asked": 442, "and": 443, "\u2581provide": 444, "old": 445, "\u2581run": 446, "\u2581among": 447, "\u2581O": 448, "\u2581thought": 449, "p": 450, "\u2581per": 451, "\u2581countries": 452, "\u2581North": 453, "\u2581health": 454, "\u2581half": 455, "\u2581enough": 456, "\u2581G": 457, "\u2581body": 458, "\u2581change": 459, "\u2581An": 460, "\u2581series": 461, "\u2581added": 462, "\u2581companies": 463, "\u2581though": 464, "\u2581process": 465, "\u2581students": 466, "\u2581start": 467, "\u2581film": 468, "x": 469, "\u2581security": 470, "\u2581late": 471, "\u2581services": 472, "\u2581With": 473, "\u2581close": 474, "\u2581control": 475, "\u2581However": 476, "\u2581course": 477, "You": 478, "\u2581near": 479, "\u2581house": 480, "\u2581working": 481, "\u2581R": 482, "\u258117": 483, "\u2581final": 484, "\u2581Sunday": 485, "\u2581less": 486, "\u2581March": 487, "no": 488, "\u2581party": 489, "9": 490, "\u2581having": 491, "\u2581meeting": 492, "\u2581plan": 493, "\u2581today": 494, "\u2581office": 495, "\u2581official": 496, "\u2581once": 497, "\u2581possible": 498, "up": 499, "\u2581hard": 500, "\u258118": 501, "\u2581given": 502, "\u2581development": 503, "\u258116": 504, "\u2581started": 505, "\u258111": 506, "\u2581played": 507, "b": 508, "\u2581House": 509, "\u2581City": 510, "\u2581together": 511, "\u2581sure": 512, "\u2581death": 513, "\u2581across": 514, "\u2581based": 515, "\u2581Minister": 516, "\u2581dollars": 517, "\u2581F": 518, "\u2581care": 519, "\u2581room": 520, "\u2581win": 521, "\u2581book": 522, "\u2581June": 523, "\u2581St": 524, "\u2581real": 525, "\u2581ago": 526, "\u2581data": 527, "\u2581released": 528, "le": 529, "el": 530, "\u2581economic": 531, "\u2581old": 532, "\u2581killed": 533, "\u2581big": 534, "\u2581form": 535, "K": 536, "\u2581times": 537, "\u2581others": 538, "\u2581community": 539, "\u2581building": 540, "\u25818": 541, "\u2581due": 542, "\u2581W": 543, "\u258130": 544, "\u2581ever": 545, "\u2581news": 546, "\u2581call": 547, "\u2581whether": 548, "\u2581according": 549, "\u2581reported": 550, "\u2581able": 551, "\u2581member": 552, "z": 553, "\u2581thing": 554, "\u2581non": 555, "ic": 556, "\u2581research": 557, "\u2581expected": 558, "\u2581British": 559, "\u2581online": 560, "\u2581European": 561, "\u2581air": 562, "\u2581April": 563, "\u2581love": 564, "\u2581level": 565, "\u2581seen": 566, "\u2581feel": 567, "\u2581eyes": 568, "\u2581am": 569, "\u2581single": 570, "\u2581music": 571, "\u2581taken": 572, "\u2581short": 573, "\u2581K": 574, "\u2581lead": 575, "\u2581July": 576, "ton": 577, "\u2581N": 578, "\u2581move": 579, "\u2581general": 580, "\u2581lost": 581, "\u2581Saturday": 582, "\u2581behind": 583, "\u2581town": 584, "\u2581West": 585, "\u2581J": 586, "\u2581main": 587, "\u2581done": 588, "\u2581looking": 589, "is": 590, "\u2581saying": 591, "\u2581These": 592, "\u2581court": 593, "\u2581human": 594, "\u2581By": 595, "\u2581received": 596, "na": 597, "\u2581record": 598, "\u2581low": 599, "\u2581Some": 600, "\u2581person": 601, "\u2581Washington": 602, "\u2581wanted": 603, "\u2581current": 604, "\u2581front": 605, "\u2581Iraq": 606, "\u2581oil": 607, "\u2581further": 608, "\u2581What": 609, "\u2581January": 610, "\u2581why": 611, "\u2581games": 612, "\u258114": 613, "\u2581history": 614, "\u2581almost": 615, "\u2581pay": 616, "ar": 617, "\u2581let": 618, "\u2581trying": 619, "de": 620, "\u2581War": 621, "\u2581September": 622, "\u2581future": 623, "\u2581industry": 624, "\u2581job": 625, "\u2581food": 626, "at": 627, "\u2581hours": 628, "\u2581deal": 629, "\u2581interest": 630, "\u2581My": 631, "\u2581special": 632, "\u2581live": 633, "\u2581however": 634, "\u2581Bush": 635, "\u2581French": 636, "\u2581taking": 637, "\u2581financial": 638, "st": 639, "\u2581America": 640, "\u2581minutes": 641, "\u2581return": 642, "\u2581period": 643, "\u2581recent": 644, "\u2581hit": 645, "\u258113": 646, "\u2581San": 647, "\u2581fact": 648, "\u2581list": 649, "\u2581died": 650, "\u2581Al": 651, "\u2581total": 652, "\u2581region": 653, "\u2581foreign": 654, "\u2581yet": 655, "\u2581experience": 656, "\u2581L": 657, "T": 658, "\u2581Co": 659, "u": 660, "ma": 661, "\u2581problem": 662, "\u2581decision": 663, "\u25819": 664, "\u2581October": 665, "\u2581himself": 666, "ne": 667, "\u2581father": 668, "it": 669, "\u2581offer": 670, "\u2581issue": 671, "son": 672, "\u2581young": 673, "\u2581County": 674, "\u2581gave": 675, "\u2581believe": 676, "ist": 677, "\u2581products": 678, "\u2581age": 679, "ness": 680, "\u2581International": 681, "\u2581role": 682, "\u2581December": 683, "\u2581outside": 684, "\u2581saw": 685, "\u2581project": 686, "\u2581led": 687, "\u2581capital": 688, "\u2581areas": 689, "\u2581doing": 690, "\u2581leader": 691, "M": 692, "\u2581Chinese": 693, "w": 694, "E": 695, "\u2581School": 696, "\u2581light": 697, "B": 698, "\u2581statement": 699, "\u25810": 700, "\u2581post": 701, "\u2581Israel": 702, "\u2581God": 703, "\u2581November": 704, "\u2581issues": 705, "time": 706, "\u2581August": 707, "\u2581problems": 708, "\u2581announced": 709, "\u2581black": 710, "\u2581turned": 711, "as": 712, "\u2581kind": 713, "\u2581try": 714, "\u2581campaign": 715, "based": 716, "\u2581example": 717, "\u2581moved": 718, "\u2581looked": 719, "\u2581cost": 720, "co": 721, "f": 722, "\u2581getting": 723, "\u2581rate": 724, "\u2581either": 725, "\u2581result": 726, "\u2581Her": 727, "\u2581price": 728, "land": 729, "\u2581anything": 730, "\u2581means": 731, "\u2581H": 732, "\u2581visit": 733, "\u2581credit": 734, "\u2581chief": 735, "\u2581policy": 736, "\u2581strong": 737, "\u2581included": 738, "\u2581personal": 739, "\u2581position": 740, "\u2581Re": 741, "\u2581forces": 742, "\u2581earlier": 743, "\u2581groups": 744, "\u2581France": 745, "\u2581event": 746, "\u2581While": 747, "\u2581director": 748, "\u2581population": 749, "\u2581trade": 750, "ta": 751, "\u2581access": 752, "G": 753, "\u2581weeks": 754, "\u2581leave": 755, "com": 756, "\u2581study": 757, "\u2581heart": 758, "\u2581tell": 759, "\u2581Department": 760, "\u2581fire": 761, "\u2581attack": 762, "\u2581share": 763, "P": 764, "day": 765, "\u2581built": 766, "\u2581meet": 767, "\u2581Japan": 768, "ity": 769, "\u2581field": 770, "\u2581increase": 771, "\u2581De": 772, "ation": 773, "\u2581likely": 774, "te": 775, "\u2581rights": 776, "\u2581story": 777, "\u2581cut": 778, "\u2581force": 779, "ia": 780, "\u2581career": 781, "led": 782, "\u2581leaders": 783, "\u2581peace": 784, "\u2581above": 785, "\u2581continue": 786, "ch": 787, "\u2581Council": 788, "\u2581media": 789, "\u2581needed": 790, "\u2581clear": 791, "\u2581key": 792, "\u2581players": 793, "\u2581needs": 794, "\u2581whose": 795, "\u2581social": 796, "\u2581sent": 797, "\u2581located": 798, "\u258125": 799, "\u2581seven": 800, "\u2581training": 801, "\u2581soon": 802, "\u2581February": 803, "\u2581private": 804, "\u2581nothing": 805, "ling": 806, "\u2581various": 807, "\u2581turn": 808, "\u2581action": 809, "\u2581London": 810, "\u2581design": 811, "\u2581named": 812, "\u2581woman": 813, "line": 814, "19": 815, "\u2581higher": 816, "\u2581white": 817, "\u2581album": 818, "\u2581federal": 819, "\u2581sales": 820, "\u2581election": 821, "\u2581knew": 822, "\u2581mind": 823, "\u2581economy": 824, "\u2581results": 825, "\u2581living": 826, "\u2581felt": 827, "\u2581read": 828, "\u2581stop": 829, "\u2581co": 830, "\u2581mother": 831, "less": 832, "\u2581worked": 833, "\u2581coming": 834, "\u2581East": 835, "\u2581Center": 836, "\u2581India": 837, "\u2581wasn": 838, "\u2581Do": 839, "ra": 840, "\u2581Cup": 841, "\u2581100": 842, "\u2581prices": 843, "ry": 844, "\u2581production": 845, "\u2581page": 846, "F": 847, "\u2581California": 848, "\u2581growth": 849, "\u2581create": 850, "\u2581plans": 851, "He": 852, "\u2581hands": 853, "\u2581match": 854, "\u2581doesn": 855, "\u2581whole": 856, "\u2581station": 857, "\u2581present": 858, "\u2581hold": 859, "\u2581tax": 860, "\u2581energy": 861, "\u2581makes": 862, "\u2581child": 863, "\u2581addition": 864, "\u2581fell": 865, "\u2581round": 866, "la": 867, "\u2581below": 868, "\u2581eight": 869, "\u2581rather": 870, "\u2581German": 871, "\u2581troops": 872, "R": 873, "H": 874, "\u2581idea": 875, "\u2581center": 876, "\u2581Europe": 877, "\u2581race": 878, "\u2581inside": 879, "\u2581common": 880, "\u2581ground": 881, "\u2581quality": 882, "\u2581land": 883, "ian": 884, "\u2581probably": 885, "\u2581someone": 886, "\u2581door": 887, "\u2581space": 888, "ment": 889, "\u2581Bank": 890, "\u2581staff": 891, "\u2581television": 892, "\u2581question": 893, "\u2581video": 894, "\u2581leading": 895, "\u2581nearly": 896, "\u2581English": 897, "\u2581club": 898, "\u2581involved": 899, "\u2581served": 900, "\u2581published": 901, "il": 902, "\u2581lower": 903, "\u2581rest": 904, "\u2581average": 905, "\u2581education": 906, "\u2581morning": 907, "\u2581spokesman": 908, "\u2581comes": 909, "\u2581allow": 910, "\u2581forward": 911, "This": 912, "\u2581technology": 913, "\u258150": 914, "\u2581provided": 915, "\u2581talks": 916, "\u2581opened": 917, "\u2581matter": 918, "\u2581Dr": 919, "\u2581computer": 920, "\u2581Russia": 921, "\u2581performance": 922, "\u258124": 923, "\u2581White": 924, "\u2581League": 925, "\u2581running": 926, "\u2581created": 927, "\u2581player": 928, "\u2581original": 929, "\u2581similar": 930, "\u2581everything": 931, "\u2581anti": 932, "\u2581Union": 933, "\u2581test": 934, "\u2581goal": 935, "Y": 936, "\u2581hope": 937, "\u2581shot": 938, "\u2581road": 939, "\u2581During": 940, "\u2581especially": 941, "\u2581largest": 942, "\u2581p": 943, "\u2581range": 944, "\u2581playing": 945, "\u2581closed": 946, "\u2581release": 947, "\u2581bad": 948, "ism": 949, "ie": 950, "\u2581England": 951, "\u2581continued": 952, "\u2581product": 953, "\u2581David": 954, "\u2581easy": 955, "\u2581pre": 956, "\u2581considered": 957, "\u2581Israeli": 958, "\u2581brought": 959, "ion": 960, "\u2581reached": 961, "\u2581bring": 962, "10": 963, "\u2581Australia": 964, "\u2581Russian": 965, "\u2581son": 966, "W": 967, "ley": 968, "\u2581decided": 969, "\u2581wife": 970, "\u2581buy": 971, "\u2581Party": 972, "\u2581programs": 973, "\u2581La": 974, "\u2581upon": 975, "\u2581title": 976, "\u2581cannot": 977, "\u2581required": 978, "What": 979, "\u2581agreement": 980, "age": 981, "ty": 982, "\u2581phone": 983, "\u2581George": 984, "\u2581view": 985, "ro": 986, "\u2581search": 987, "\u2581management": 988, "J": 989, "\u2581popular": 990, "\u2581value": 991, "\u2581toward": 992, "et": 993, "\u2581reason": 994, "\u2581actually": 995, "\u2581longer": 996, "\u2581century": 997, "\u2581Germany": 998, "\u2581Now": 999, "\u2581tried": 1000, "\u2581website": 1001, "\u2581stock": 1002, "\u2581friends": 1003, "\u2581rose": 1004, "\u2581Clinton": 1005, "\u2581words": 1006, "\u2581insurance": 1007, "\u2581conference": 1008, "\u2581complete": 1009, "18": 1010, "da": 1011, "\u2581north": 1012, "\u2581bank": 1013, "\u2581band": 1014, "\u2581web": 1015, "\u2581General": 1016, "casino": 1017, "\u2581vote": 1018, "\u2581Then": 1019, "\u2581medical": 1020, "\u2581works": 1021, "se": 1022, "\u2581situation": 1023, "\u2581V": 1024, "\u2581voice": 1025, "\u2581minister": 1026, "\u2581events": 1027, "\u2581certain": 1028, "\u258119": 1029, "\u2581professional": 1030, "\u2581questions": 1031, "\u2581blood": 1032, "\u2581met": 1033, "\u2581talk": 1034, "\u2581states": 1035, "\u2581board": 1036, "\u2581type": 1037, "\u2581themselves": 1038, "L": 1039, "\u2581version": 1040, "ka": 1041, "\u2581workers": 1042, "\u2581Street": 1043, "\u2581usually": 1044, "\u2581Court": 1045, "\u2581risk": 1046, "\u2581south": 1047, "\u2581administration": 1048, "\u2581includes": 1049, "\u2581recently": 1050, "\u2581nation": 1051, "\u2581currently": 1052, "\u2581Internet": 1053, "\u2581legal": 1054, "\u2581itself": 1055, "\u2581contact": 1056, "\u2581cases": 1057, "\u2581software": 1058, "\u2581loss": 1059, "\u2581followed": 1060, "\u2581returned": 1061, "\u2581written": 1062, "\u2581central": 1063, "\u2581designed": 1064, "\u2581amount": 1065, "\u2581property": 1066, "ur": 1067, "\u2581quickly": 1068, "ine": 1069, "\u2581moment": 1070, "\u2581miles": 1071, "\u2581From": 1072, "\u2581Most": 1073, "\u2581efforts": 1074, "\u2581class": 1075, "\u2581attacks": 1076, "\u25812010": 1077, "\u2581stay": 1078, "do": 1079, "\u2581self": 1080, "\u2581bit": 1081, "\u2581although": 1082, "\u258121": 1083, "\u2581changes": 1084, "\u2581previous": 1085, "\u2581fall": 1086, "\u2581village": 1087, "me": 1088, "\u2581individual": 1089, "\u2581network": 1090, "\u2581features": 1091, "\u2581art": 1092, "\u2581Association": 1093, "\u2581born": 1094, "\u2581Park": 1095, "\u2581Canada": 1096, "\u2581College": 1097, "\u2581African": 1098, "\u2581According": 1099, "\u2581agency": 1100, "\u2581step": 1101, "\u2581cause": 1102, "\u2581Many": 1103, "\u2581else": 1104, "www": 1105, "O": 1106, "\u2581reports": 1107, "\u2581feet": 1108, "\u2581terms": 1109, "\u2581Africa": 1110, "\u2581understand": 1111, "one": 1112, "\u2581nuclear": 1113, "rs": 1114, "\u258140": 1115, "\u2581chance": 1116, "ad": 1117, "\u2581senior": 1118, "\u2581Congress": 1119, "There": 1120, "ir": 1121, "\u2581account": 1122, "\u2581&": 1123, "\u2581allowed": 1124, "\u2581mean": 1125, "men": 1126, "\u2581dead": 1127, "\u2581Palestinian": 1128, "\u2581instead": 1129, "\u25812008": 1130, "\u2581address": 1131, "\u2581difficult": 1132, "\u2581heard": 1133, "\u2581How": 1134, "\u2581systems": 1135, "\u2581natural": 1136, "\u2581Or": 1137, "ce": 1138, "\u2581word": 1139, "\u2581Group": 1140, "\u2581term": 1141, "V": 1142, "\u2581wrote": 1143, "\u2581appeared": 1144, "\u2581signed": 1145, "\u2581Our": 1146, "\u2581Since": 1147, "\u2581summer": 1148, "\u2581throughout": 1149, "\u2581global": 1150, "\u2581church": 1151, "\u2581coach": 1152, "\u2581TV": 1153, "\u2581More": 1154, "\u2581evidence": 1155, "be": 1156, "\u2581date": 1157, "ter": 1158, "\u2581base": 1159, "\u2581song": 1160, "\u2581Mr": 1161, "\u2581hair": 1162, "\u2581River": 1163, "by": 1164, "\u2581ahead": 1165, "\u2581lives": 1166, "ate": 1167, "of": 1168, "\u2581shows": 1169, "\u2581red": 1170, "\u2581offers": 1171, "\u2581simply": 1172, "\u2581James": 1173, "\u2581activities": 1174, "\u2581Japanese": 1175, "\u2581provides": 1176, "\u2581Although": 1177, "\u2581agreed": 1178, "\u2581parents": 1179, "\u2581check": 1180, "\u2581district": 1181, "\u25812011": 1182, "\u2581pressure": 1183, "\u2581learn": 1184, "\u2581follow": 1185, "\u2581sense": 1186, "go": 1187, "\u2581spent": 1188, "If": 1189, "\u2581student": 1190, "\u2581ask": 1191, "\u2581Michael": 1192, "\u2581fight": 1193, "\u2581effort": 1194, "\u2581Korea": 1195, "\u2581response": 1196, "ni": 1197, "\u2581established": 1198, "am": 1199, "\u2581paper": 1200, "\u2581quarter": 1201, "\u2581conditions": 1202, "ting": 1203, "ri": 1204, "\u2581couldn": 1205, "\u2581quite": 1206, "ge": 1207, "\u2581drug": 1208, "\u2581Paul": 1209, "\u2581rates": 1210, "\u2581practice": 1211, "um": 1212, "\u2581wide": 1213, "\u2581species": 1214, "\u2581Not": 1215, "\u2581anyone": 1216, "\u2581receive": 1217, "\u2581size": 1218, "\u2581attention": 1219, "\u2581potential": 1220, "\u2581Web": 1221, "\u2581authorities": 1222, "\u2581fourth": 1223, "\u2581sound": 1224, "\u2581treatment": 1225, "\u2581Texas": 1226, "ized": 1227, "\u2581described": 1228, "\u2581true": 1229, "\u2581success": 1230, "\u2581developed": 1231, "v": 1232, "\u2581friend": 1233, "\u2581Inc": 1234, "ke": 1235, "\u2581sign": 1236, "\u2581ready": 1237, "bo": 1238, "\u2581organization": 1239, "\u2581specific": 1240, "\u2581Iran": 1241, "\u2581radio": 1242, "\u2581language": 1243, "\u2581particular": 1244, "\u2581sold": 1245, "In": 1246, "\u2581Prime": 1247, "\u2581Service": 1248, "born": 1249, "\u2581finished": 1250, "\u2581everyone": 1251, "\u2581victory": 1252, "\u2581entire": 1253, "\u2581High": 1254, "\u2581army": 1255, "\u2581gas": 1256, "\u2581investment": 1257, "li": 1258, "\u2581couple": 1259, "\u2581source": 1260, "\u2581King": 1261, "\u2581immediately": 1262, "\u2581cover": 1263, "un": 1264, "\u2581opening": 1265, "\u2581build": 1266, "\u25812006": 1267, "\u2581additional": 1268, "\u2581stage": 1269, "\u2581material": 1270, "\u2581Committee": 1271, "\u2581track": 1272, "\u2581II": 1273, "\u2581joined": 1274, "\u2581Me": 1275, "\u2581Red": 1276, "est": 1277, "\u2581beginning": 1278, "ally": 1279, "\u2581Indian": 1280, "out": 1281, "\u2581please": 1282, "\u2581increased": 1283, "\u2581pro": 1284, "\u2581effect": 1285, "\u2581content": 1286, "\u2581reach": 1287, "\u2581football": 1288, "\u2581families": 1289, "\u2581latest": 1290, "\u2581costs": 1291, "\u2581Be": 1292, "\u2581Australian": 1293, "But": 1294, "\u2581offered": 1295, "\u2581al": 1296, "\u2581opposition": 1297, "\u2581contract": 1298, "der": 1299, "\u2581First": 1300, "\u2581construction": 1301, "\u2581Le": 1302, "\u2581seems": 1303, "\u2581focus": 1304, "\u2581necessary": 1305, "\u2581gold": 1306, "\u25812009": 1307, "\u2581soldiers": 1308, "\u2581produced": 1309, "\u2581Two": 1310, "\u25812012": 1311, "\u2581details": 1312, "\u2581remain": 1313, "\u2581teams": 1314, "j": 1315, "\u2581travel": 1316, "\u2581executive": 1317, "\u2581changed": 1318, "\u2581add": 1319, "\u2581press": 1320, "\u2581takes": 1321, "\u2581parts": 1322, "\u2581drive": 1323, "\u2581table": 1324, "\u2581bill": 1325, "\u2581schools": 1326, "\u25812007": 1327, "No": 1328, "nd": 1329, "\u2581District": 1330, "\u2581floor": 1331, "They": 1332, "\u2581subject": 1333, "\u258122": 1334, "\u2581southern": 1335, "\u2581charge": 1336, "\u2581showed": 1337, "\u2581firm": 1338, "\u2581defense": 1339, "\u2581kept": 1340, "\u2581Man": 1341, "\u2581model": 1342, "\u2581card": 1343, "\u2581giving": 1344, "\u2581books": 1345, "ca": 1346, "?\u201d": 1347, "\u2581ended": 1348, "\u2581nine": 1349, "\u2581violence": 1350, "\u2581helped": 1351, "\u2581El": 1352, "\u2581shares": 1353, "\u2581operations": 1354, "\u2581elections": 1355, "\u25812000": 1356, "ner": 1357, "\u2581growing": 1358, "\u2581mid": 1359, "\u2581annual": 1360, "\u2581loan": 1361, "\u2581daily": 1362, "\u2581serious": 1363, "\u2581Britain": 1364, "\u2581fast": 1365, "\u2581break": 1366, "\u2581Robert": 1367, "\u2581Los": 1368, "\u2581simple": 1369, "\u2581Even": 1370, "per": 1371, "off": 1372, "\u2581paid": 1373, "\u2581arms": 1374, "\u2581related": 1375, "\u2581significant": 1376, "\u2581college": 1377, "\u2581income": 1378, "\u2581$1": 1379, "\u2581modern": 1380, "\u2581finally": 1381, "\u2581sometimes": 1382, "for": 1383, "\u2581failed": 1384, "\u2581parties": 1385, "\u2581section": 1386, "\u2581Con": 1387, "\u2581hear": 1388, "\u2581weapons": 1389, "\u2581raised": 1390, "\u2581customers": 1391, "\u2581Air": 1392, "\u2581style": 1393, "\u2581opportunity": 1394, "\u2581seemed": 1395, "12": 1396, "\u2581budget": 1397, "\u2581review": 1398, "\u2581Li": 1399, "\u2581passed": 1400, "\u2581Your": 1401, "\u2581trial": 1402, "\u2581Republican": 1403, "\u2581X": 1404, "\u2581sites": 1405, "ish": 1406, "\u2581brother": 1407, "\u2581Central": 1408, "\u2581send": 1409, "ak": 1410, "\u2581wrong": 1411, "\u2581alone": 1412, "\u2581Obama": 1413, "\u2581rules": 1414, "ted": 1415, "\u2581manager": 1416, "\u2581interview": 1417, "\u258123": 1418, "\u2581News": 1419, "\u2581ways": 1420, "\u2581sea": 1421, "\u2581Army": 1422, "\u2581begin": 1423, "\u2581Security": 1424, "\u2581moving": 1425, "den": 1426, "\u2581condition": 1427, "00": 1428, "\u2581deep": 1429, "\u2581daughter": 1430, "\u2581Please": 1431, "\u2581movie": 1432, "\u2581despite": 1433, "\u2581stand": 1434, "\u2581movement": 1435, "\u2581levels": 1436, "\u2581successful": 1437, "he": 1438, "\u2581writing": 1439, "That": 1440, "\u2581caused": 1441, "\u2581Florida": 1442, "\u2581aid": 1443, "ant": 1444, "\u2581safety": 1445, "\u2581particularly": 1446, "\u2581article": 1447, "ster": 1448, "ary": 1449, "\u2581file": 1450, "\u2581standard": 1451, "\u2581Church": 1452, "\u2581Mar": 1453, "\u2581cash": 1454, "\u2581ensure": 1455, "\u2581crisis": 1456, "\u2581Democratic": 1457, "\u2581Mo": 1458, "20": 1459, "\u2581hospital": 1460, "\u2581thousands": 1461, "\u2581Pakistan": 1462, "ga": 1463, "50": 1464, "field": 1465, "\u2581sub": 1466, "\u2581regular": 1467, "\u2581UN": 1468, "\u2581beat": 1469, "\u2581Go": 1470, "\u2581scored": 1471, "\u2581majority": 1472, "\u2581commercial": 1473, "\u2581improve": 1474, "\u2581competition": 1475, "\u2581equipment": 1476, "\u2581Senate": 1477, "\u2581northern": 1478, "\u2581application": 1479, "\u2581demand": 1480, "\u2581border": 1481, "\u2581gone": 1482, "term": 1483, "\u2581remains": 1484, "\u2581resources": 1485, "\u2581pass": 1486, "\u2581disease": 1487, "\u2581independent": 1488, "ya": 1489, "im": 1490, "\u2581Institute": 1491, "\u2581married": 1492, "\u2581remained": 1493, "\u2581island": 1494, "mo": 1495, "30": 1496, "\u2581message": 1497, "\u2581relationship": 1498, "\u2581forced": 1499, "id": 1500, "\u2581fighting": 1501, "\u2581limited": 1502, "\u2581charges": 1503, "\u2581William": 1504, "\u2581traditional": 1505, "ex": 1506, "ko": 1507, "\u2581pretty": 1508, "\u2581directly": 1509, "\u2581Mexico": 1510, "\u2581leaving": 1511, "sa": 1512, "ies": 1513, "\u258127": 1514, "\u2581store": 1515, "\u25812004": 1516, "\u2581runs": 1517, "\u25812005": 1518, "\u2581huge": 1519, "\u25811,": 1520, "\u2581choice": 1521, "15": 1522, "\u2581sell": 1523, "\u2581consider": 1524, "\u2581happened": 1525, "\u2581projects": 1526, "\u2581Western": 1527, "di": 1528, "ol": 1529, "\u2581shall": 1530, "17": 1531, "\u2581entry": 1532, "\u2581Other": 1533, "\u2581EU": 1534, "\u2581newspaper": 1535, "\u2581environment": 1536, "\u2581save": 1537, "\u2581middle": 1538, "\u2581protect": 1539, "\u2581green": 1540, "\u2581starting": 1541, "\u2581character": 1542, "\u2581answer": 1543, "\u2581winning": 1544, "11": 1545, "\u2581myself": 1546, "\u2581tour": 1547, "\u2581net": 1548, "\u2581jobs": 1549, "way": 1550, "\u2581Also": 1551, "\u2581approach": 1552, "\u2581responsible": 1553, "lin": 1554, "\u2581biggest": 1555, "\u2581knowledge": 1556, "\u2581poor": 1557, "\u258126": 1558, "\u2014": 1559, "\u2581ability": 1560, "\u2581Car": 1561, "\u2581act": 1562, "\u2581skin": 1563, "\u2581image": 1564, "\u2581goes": 1565, "\u2581Kong": 1566, "\u2581heavy": 1567, "\u2581direct": 1568, "\u2581patients": 1569, "\u2581completed": 1570, "\u2581letter": 1571, "\u2581fun": 1572, "\u2581choose": 1573, "\u2581Hong": 1574, "os": 1575, "\u258128": 1576, "\u2581Of": 1577, "\u2581wants": 1578, "\u2581dark": 1579, "U": 1580, "\u2581placed": 1581, "\u2581Iraqi": 1582, "\u2581People": 1583, "\u2581Pro": 1584, "\u2581impact": 1585, "\u2581figure": 1586, "\u2581Commission": 1587, "\u2581extra": 1588, "\u2581seem": 1589, "pe": 1590, "\u2581unit": 1591, "\u2581fine": 1592, "\u2581pain": 1593, "\u2581league": 1594, "\u2581Secretary": 1595, "\u2581compared": 1596, "\u2581Bill": 1597, "va": 1598, "\u2581basis": 1599, "\u2581Angeles": 1600, "\u2581isn": 1601, "\u2581Times": 1602, "we": 1603, "\u2581worth": 1604, "ive": 1605, "\u2581hot": 1606, "ler": 1607, "16": 1608, "\u2581Don": 1609, "\u2581towards": 1610, "\u2581Asia": 1611, "\u2581Taiwan": 1612, "\u2581serve": 1613, "\u2581rule": 1614, "\u2581girl": 1615, "\u2581employees": 1616, "\u2581trip": 1617, "ful": 1618, "25": 1619, "\u2581double": 1620, "\u2581Day": 1621, "\u2581happy": 1622, "\u2581users": 1623, "\u2581calls": 1624, "\u2581operation": 1625, ",\u201d": 1626, "\u2581develop": 1627, "\u2581watch": 1628, "\u2581whom": 1629, "\u2581Mark": 1630, "\u2581Black": 1631, "\u2581straight": 1632, "\u2581remember": 1633, "\u2581sale": 1634, "mail": 1635, "\u2581weight": 1636, "\u2581husband": 1637, "\u2581color": 1638, "\u258160": 1639, "\u2581Act": 1640, "\u2581Just": 1641, "ba": 1642, "\u2581casino": 1643, "\u2581Americans": 1644, "\u2581hotel": 1645, "\u2581east": 1646, "\u2581via": 1647, "And": 1648, "\u2581plant": 1649, "\u2581cross": 1650, "\u2581believed": 1651, "\u2581Italian": 1652, "ja": 1653, "\u2581positive": 1654, "\u2581lines": 1655, "\u2581Peter": 1656, "\u2581ball": 1657, "\u2581markets": 1658, "\u2581easily": 1659, "\u2581funds": 1660, "\u2581highest": 1661, "\u2581ran": 1662, "\u2581index": 1663, "ha": 1664, "\u2581prevent": 1665, "\u2581Hall": 1666, "\u2581goals": 1667, "\u2581Both": 1668, "\u2581Foreign": 1669, "\u2581arrived": 1670, "\u2581hour": 1671, "\u2581Thomas": 1672, "\u2581join": 1673, "\u2581officer": 1674, "\u2581sources": 1675, "\u2581effective": 1676, "\u2581variety": 1677, "\u2581Health": 1678, "\u2581adding": 1679, "ti": 1680, "\u2581attempt": 1681, "\u2581investors": 1682, "\u2581numbers": 1683, "\u25812003": 1684, "\u2581avoid": 1685, "\u2581safe": 1686, "\u2581mission": 1687, "\u2581blue": 1688, "\u2581Press": 1689, "\u2581Smith": 1690, "\u2581dollar": 1691, "\u2581collection": 1692, "\u2581degree": 1693, "\u2581committee": 1694, "\u2581dropped": 1695, "\u2581damage": 1696, "\u2581nature": 1697, "\u2581providing": 1698, "\u2581noted": 1699, "\u2581trading": 1700, "amp": 1701, "\u2581Christian": 1702, "ah": 1703, "\u2581relations": 1704, "\u2581perfect": 1705, "\u2581email": 1706, "\u2581eventually": 1707, "\u2581carried": 1708, "\u2581comment": 1709, "\u2581Another": 1710, "\u2581Bay": 1711, "\u2581Italy": 1712, "\u2581code": 1713, "ham": 1714, "\u2581eye": 1715, "ous": 1716, "\u2581Di": 1717, "\u2581sides": 1718, "\u2581residents": 1719, "\u2581thinking": 1720, "\u2581sports": 1721, "\u25811990": 1722, "\u2581civil": 1723, "\u2581benefits": 1724, "\u2581exchange": 1725, "\u2581elected": 1726, "\u2581battle": 1727, "\u2581loans": 1728, "\u2581overall": 1729, "\u2581link": 1730, "\u2581separate": 1731, "\u2581wouldn": 1732, "\u2581department": 1733, "\u2581appear": 1734, "\u2581rise": 1735, "\u2581regional": 1736, "\u2581Paris": 1737, "\u2581listed": 1738, "\u2581accused": 1739, "\u2581issued": 1740, "\u2581planned": 1741, "\u2581investigation": 1742, "13": 1743, "\u2581Bar": 1744, "\u2581request": 1745, "\u2581powerful": 1746, "\u2581expect": 1747, "\u2581presidential": 1748, "\u2581generally": 1749, "\u2581west": 1750, "ana": 1751, "\u2581shown": 1752, "\u2581location": 1753, "\u2581protection": 1754, "\u2581completely": 1755, "\u2581beyond": 1756, "\u2581holding": 1757, "\u2581text": 1758, "\u2581wall": 1759, "\u25812002": 1760, "\u2581weekend": 1761, "\u2581province": 1762, "\u2581Chicago": 1763, "\u2581street": 1764, "\u2581allows": 1765, "\u2581debt": 1766, "\u2581science": 1767, "\u2581active": 1768, "\u2581require": 1769, "\u2581chairman": 1770, "\u2581arrested": 1771, "\u2581walk": 1772, "\u2581stopped": 1773, "\u2581stood": 1774, "\u2581religious": 1775, "\u2581spending": 1776, "\u2581planning": 1777, "\u25812001": 1778, "\u2581unique": 1779, "\u2581mouth": 1780, "\u2581speed": 1781, "\u2581proposed": 1782, "\u2581pulled": 1783, "Z": 1784, "\u2581studies": 1785, "\u2581greater": 1786, "\u2581Board": 1787, "\u2581Brown": 1788, "ance": 1789, "\u2581highly": 1790, "\u2581normal": 1791, "\u2581talking": 1792, "\u2581items": 1793, "\u2581officers": 1794, "\u2581star": 1795, "\u2581rock": 1796, "ul": 1797, "\u2581scheduled": 1798, "\u2581culture": 1799, "\u2581ten": 1800, "\u2581activity": 1801, "\u2581ship": 1802, "\u2581feeling": 1803, "\u2581yourself": 1804, "\u2581Afghanistan": 1805, "\u2581Canadian": 1806, "\u2581onto": 1807, "\u2581bar": 1808, "\u2581box": 1809, "ov": 1810, "\u2581Asian": 1811, "\u2581businesses": 1812, "\u2581etc": 1813, "\u2581society": 1814, "\u2581Nations": 1815, "ey": 1816, "\u2581purchase": 1817, "\u2581fuel": 1818, "\u2581fear": 1819, "\u2581reduce": 1820, "\u2581mostly": 1821, "ization": 1822, "\u2581physical": 1823, "\u2581produce": 1824, "\u2581happen": 1825, "\u2581lack": 1826, "\u2581primary": 1827, "\u2581Open": 1828, "wa": 1829, "\u2581Richard": 1830, "pa": 1831, "\u2581prime": 1832, "\u2581Jan": 1833, "\u2581recorded": 1834, "\u2581cars": 1835, "\u2581Su": 1836, "\u2581Research": 1837, "sh": 1838, "\u2581older": 1839, "\u2581prison": 1840, "min": 1841, "wood": 1842, "\u2581Boston": 1843, "\u2581claimed": 1844, "\u2581individuals": 1845, "\u2581reading": 1846, "\u2581cancer": 1847, "\u2581beautiful": 1848, "\u2581gives": 1849, "\u2581fully": 1850, "\u2581formed": 1851, "\u2581cities": 1852, "\u2581Can": 1853, "\u2581bed": 1854, "\u2581status": 1855, "\u2581Last": 1856, "\u2581claim": 1857, "\u2581measures": 1858, "\u2581feature": 1859, "\u2581arm": 1860, "\u2581Spanish": 1861, "\u2581Police": 1862, "\u2581Lee": 1863, "\u2581effects": 1864, "con": 1865, "\u2581launched": 1866, "\u2581Under": 1867, "\u2581Martin": 1868, "\u2581Island": 1869, "\u2581UK": 1870, "\u2581larger": 1871, "\u2581purpose": 1872, "\u2581Corp": 1873, "\u2581write": 1874, "\u258129": 1875, "\u2581seat": 1876, "\u2581tournament": 1877, "14": 1878, "\u2581author": 1879, "mar": 1880, "\u2581complex": 1881, "\u2581Lake": 1882, "\u2581killing": 1883, "\u2581Office": 1884, "\u2581Ben": 1885, "\u2581kids": 1886, "\u2581benefit": 1887, "io": 1888, "\u2581Company": 1889, "les": 1890, "\u2581reporters": 1891, "\u2581banks": 1892, "\u2581organizations": 1893, "\u2581dis": 1894, "que": 1895, "ard": 1896, "\u2581claims": 1897, "\u2581looks": 1898, "\u2581learning": 1899, "\u2581camp": 1900, "\u2581minute": 1901, "\u2581piece": 1902, "\u2581Ar": 1903, "\u2581homes": 1904, "\u2581estate": 1905, "\u2581Club": 1906, "\u2581drop": 1907, "ent": 1908, "\u25811998": 1909, "\u25811980": 1910, "\u2581concern": 1911, "\u2581spread": 1912, "ship": 1913, "em": 1914, "\u2581progress": 1915, "\u2581injured": 1916, "\u2581marketing": 1917, "\u2581Green": 1918, "\u2581spring": 1919, "\u2581places": 1920, "her": 1921, "\u2581finish": 1922, "\u2581Bo": 1923, "\u2581skills": 1924, "\u2581carry": 1925, "\u2581posted": 1926, "\u2581domestic": 1927, "\u2581Tom": 1928, "lo": 1929, "\u2581user": 1930, "\u2581names": 1931, "\u2581Federal": 1932, "ina": 1933, "\u2581fans": 1934, "\u2581joint": 1935, "end": 1936, "rd": 1937, "\u2581solution": 1938, "\u2581becoming": 1939, "X": 1940, "lan": 1941, "net": 1942, "side": 1943, "\u2581materials": 1944, "\u2581score": 1945, "\u2581cold": 1946, "\u2581pick": 1947, "ville": 1948, "\u2581basic": 1949, "\u2581Islamic": 1950, "\u2581approved": 1951, "\u2581perhaps": 1952, "port": 1953, "\u2581Republic": 1954, "\u2581options": 1955, "\u2581structure": 1956, "\u2581interested": 1957, "\u2581traffic": 1958, "\u2581Spain": 1959, "\u2581Here": 1960, "\u2581session": 1961, "\u2581click": 1962, "if": 1963, "\u2581Charles": 1964, "\u2581auto": 1965, "\u2581Great": 1966, "\u2581sector": 1967, "\u2581sort": 1968, "\u2581Ma": 1969, "like": 1970, "\u2581types": 1971, "\u2581covered": 1972, "\u2581Division": 1973, "\u2581fund": 1974, "\u2581Ministry": 1975, "\u2581caught": 1976, "\u2581Once": 1977, "\u2581Government": 1978, "op": 1979, "\u2581Each": 1980, "\u2581Royal": 1981, "\u2581stories": 1982, "\u2581target": 1983, "\u2581spend": 1984, "\u2581supply": 1985, "\u2581picture": 1986, "\u2581cell": 1987, "\u2581Their": 1988, "\u2581vehicle": 1989, "\u2581hurt": 1990, "\u2581enjoy": 1991, "\u2581comments": 1992, "\u2581records": 1993, "\u2581responsibility": 1994, "\u258131": 1995, "\u2581ordered": 1996, "\u2581baby": 1997, "\u2581Jones": 1998, "\u2581Because": 1999, "\u2581entered": 2000, "\u2581boy": 2001, "\u2581ex": 2002, "\u2581Sam": 2003, "\u25811999": 2004, "\u2581aircraft": 2005, "\u2581laws": 2006, "\u2581managed": 2007, "\u2581discuss": 2008, "\u2581Art": 2009, "\u2581developing": 2010, "\u2581concerns": 2011, "\u2581engine": 2012, "ver": 2013, "\u2581option": 2014, "ut": 2015, "\u2581charged": 2016, "\u2581heat": 2017, "\u2581accept": 2018, "\u2581associated": 2019, "\u2581Lord": 2020, "\u2581Hill": 2021, "\u2581wish": 2022, "US": 2023, "\u2581respect": 2024, "\u25811996": 2025, "\u2581previously": 2026, "\u2581mass": 2027, "\u2581operating": 2028, "\u2581Road": 2029, "ji": 2030, "\u2581Lu": 2031, "\u2581waiting": 2032, "\u2581scene": 2033, "\u2581exactly": 2034, "\u2581guy": 2035, "\u2581candidate": 2036, "\u2581presented": 2037, "\u2581Middle": 2038, "\u2581note": 2039, "\u2581speak": 2040, "\u2581leadership": 2041, "\u2581lived": 2042, "\u2581units": 2043, "tra": 2044, "\u2581meant": 2045, "\u2581multi": 2046, "\u2581appointed": 2047, "\u2581hundreds": 2048, "\u2581quick": 2049, "\u2581appears": 2050, "za": 2051, "\u2581bottom": 2052, "back": 2053, "\u2581Law": 2054, "\u2581www": 2055, "\u2581Zealand": 2056, "\u2581host": 2057, "\u2581conflict": 2058, "\u2581presence": 2059, "\u2581evening": 2060, "\u2581broke": 2061, "\u2581performed": 2062, "\u2581seeking": 2063, "\u2581Society": 2064, "\u2581wait": 2065, "\u2581Ka": 2066, "\u2581multiple": 2067, "\u2581figures": 2068, "\u2581division": 2069, "\u2581direction": 2070, "\u2581Grand": 2071, "\u2581200": 2072, "\u2581En": 2073, "\u2581train": 2074, "ang": 2075, "ating": 2076, "\u2581speech": 2077, "\u2581window": 2078, "\u2581applications": 2079, "\u2581spot": 2080, "\u2581determine": 2081, "king": 2082, "\u2581critical": 2083, "\u2581remaining": 2084, "\u2581owner": 2085, "\u2581surface": 2086, "dy": 2087, "40": 2088, "\u2581champion": 2089, "\u2581introduced": 2090, "house": 2091, "\u2581truth": 2092, "ney": 2093, "\u2581steps": 2094, "\u2581Ho": 2095, "so": 2096, "\u2581Sea": 2097, "car": 2098, "\u2581policies": 2099, "\u2581Se": 2100, "\u2581nice": 2101, "\u2581river": 2102, "\u2581Olympic": 2103, "\u2581female": 2104, "\u2581Beijing": 2105, "\u2581prepared": 2106, "\u2581union": 2107, "\u2581estimated": 2108, "\u2581filed": 2109, "\u2581facilities": 2110, "\u2581ruling": 2111, "\u2581buildings": 2112, "\u2581reasons": 2113, "\u2581prior": 2114, "\u2581flight": 2115, "\u2581Home": 2116, "\u2581mine": 2117, "\u2581founded": 2118, "\u2581Mac": 2119, "ated": 2120, "\u2581lose": 2121, "\u2581difference": 2122, "\u2581herself": 2123, "\u2581experts": 2124, "\u2581agree": 2125, "\u2581Z": 2126, "\u2581gain": 2127, "\u2581offering": 2128, "\u2581standards": 2129, "\u2581documents": 2130, "\u2581square": 2131, "\u2581draw": 2132, "\u2581park": 2133, "\u2581challenge": 2134, "\u2581Sen": 2135, "\u2581debut": 2136, "\u2581enter": 2137, "\u2581machine": 2138, "tic": 2139, "\u2581magazine": 2140, "\u2581advantage": 2141, "\u2581Jewish": 2142, "\u2581links": 2143, "\u2581judge": 2144, "\u2581initial": 2145, "\u2581clean": 2146, "\u2581con": 2147, "\u2581walked": 2148, "\u2581calling": 2149, "\u2581refused": 2150, "ier": 2151, "\u2581Arab": 2152, "\u2581raise": 2153, "ring": 2154, "\u2581threat": 2155, "ran": 2156, "\u2581setting": 2157, "\u2581nations": 2158, "ny": 2159, "kin": 2160, "ping": 2161, "\u2581sat": 2162, "\u2581maybe": 2163, "\u2581distance": 2164, "\u2581Democrats": 2165, "\u2581existing": 2166, "\u2581ideas": 2167, "au": 2168, "run": 2169, "\u2581songs": 2170, "\u2581smaller": 2171, "\u2581understanding": 2172, "\u2581Super": 2173, "\u2581fresh": 2174, "\u2581method": 2175, "\u2581sun": 2176, "\u2581standing": 2177, "\u2581NATO": 2178, "ek": 2179, "\u2581afternoon": 2180, "\u2581suggested": 2181, "\u2581expressed": 2182, "\u2581appropriate": 2183, "\u2581Sa": 2184, "\u2581analysis": 2185, "\u2581vice": 2186, "\u2581Jack": 2187, "\u2581crime": 2188, "\u2581thus": 2189, "\u2581Before": 2190, "\u2581Q": 2191, "\u2581spoke": 2192, "\u2581injury": 2193, "\u2581weather": 2194, "\u2581cast": 2195, "mer": 2196, "\u2581contains": 2197, "\u2581Mary": 2198, "\u2581strike": 2199, "\u2581Korean": 2200, "\u2581kill": 2201, "\u2581twice": 2202, "\u2581Na": 2203, "\u2581influence": 2204, "\u258135": 2205, "\u2581concerned": 2206, "\u2581confirmed": 2207, "\u2581slow": 2208, "\u2581certainly": 2209, "\u2581Post": 2210, "\u2581customer": 2211, "\u2581airport": 2212, "ck": 2213, "\u2581Lo": 2214, "\u2581Ireland": 2215, "\u2581sex": 2216, "\u2581command": 2217, "\u2581cooperation": 2218, "\u2581Over": 2219, "\u2581grow": 2220, "\u2581drugs": 2221, "\u2581function": 2222, "\u2581doctor": 2223, "\u2581maintain": 2224, "all": 2225, "\u25811997": 2226, "\u2581Games": 2227, "\u25811994": 2228, "\u2581partner": 2229, "\u2581parliament": 2230, "\u2581nearby": 2231, "\u2581Sun": 2232, "\u2581Johnson": 2233, "\u2581fish": 2234, "red": 2235, "\u2581Despite": 2236, "\u2581western": 2237, "\u2581intended": 2238, "my": 2239, "\u2581strategy": 2240, "\u2581requirements": 2241, "\u2581bought": 2242, "\u2581hearing": 2243, "\u2581replaced": 2244, "\u2581slightly": 2245, "\u2581Muslim": 2246, "\u2581digital": 2247, "free": 2248, "over": 2249, "So": 2250, "\u2581sister": 2251, "ize": 2252, "\u2581attended": 2253, "\u2581plays": 2254, "\u2581Men": 2255, "24": 2256, "\u2581grew": 2257, "\u2581Williams": 2258, "\u2581serving": 2259, "\u2581clients": 2260, "ker": 2261, "\u25811995": 2262, "\u2581decide": 2263, "\u2581crowd": 2264, "fi": 2265, "ber": 2266, "\u2581warned": 2267, "\u2581screen": 2268, "\u2581trust": 2269, "95": 2270, "\u2581creating": 2271, "\u2581inter": 2272, "\u2581forms": 2273, "\u2581Atlanta": 2274, "\u2581award": 2275, "\u2581reform": 2276, "bar": 2277, "\u2581victims": 2278, "\u2581missing": 2279, "\u2581strength": 2280, "\u2581except": 2281, "\u2581touch": 2282, "\u2581selected": 2283, "\u2581sleep": 2284, "\u2581apply": 2285, "\u2581famous": 2286, "\u2581fifth": 2287, "\u2581dog": 2288, "\u2581telephone": 2289, "\u2581council": 2290, "\u2581Why": 2291, "\u2581glass": 2292, "\u2581yen": 2293, "ci": 2294, "\u2581appearance": 2295, "\u2581Wall": 2296, "well": 2297, "\u2581gets": 2298, "\u2581cool": 2299, "My": 2300, "\u2581lawyer": 2301, "\u2581\u2018": 2302, "\u2581Award": 2303, "\u2581seek": 2304, "\u2581cents": 2305, "21": 2306, "\u2581industrial": 2307, "\u2581images": 2308, "ists": 2309, "\u2581measure": 2310, "lu": 2311, "\u2581Soviet": 2312, "\u2581formula": 2313, "\u2581capacity": 2314, "\u2581Free": 2315, "\u2581emergency": 2316, "\u2581debate": 2317, "\u2581driving": 2318, "\u2581Pre": 2319, "\u2581decades": 2320, "\u2581housing": 2321, "\u2581vehicles": 2322, "\u2581uses": 2323, "\u2581directed": 2324, "\u2581Public": 2325, "\u2581voters": 2326, "\u2581Development": 2327, "\u2581fit": 2328, "\u2581stated": 2329, "board": 2330, "\u2581helping": 2331, "\u2581supported": 2332, "\u2581Mike": 2333, "\u2581losing": 2334, "\u2581Catholic": 2335, "\u2581profit": 2336, "ise": 2337, "\u2581candidates": 2338, "\u2581originally": 2339, "\u2581bid": 2340, "ze": 2341, "\u2581survey": 2342, "\u2581showing": 2343, "mi": 2344, "\u2581Du": 2345, "\u2581brain": 2346, "\u2581technical": 2347, "\u2581corporate": 2348, "\u2581c": 2349, "\u2581learned": 2350, "\u2581About": 2351, "\u2581plane": 2352, "\u2581winner": 2353, "\u2581Virginia": 2354, "\u2581numerous": 2355, "\u2581ministry": 2356, "\u2581plants": 2357, "\u2581agencies": 2358, "ial": 2359, "sen": 2360, "\u2581opportunities": 2361, "\u2581committed": 2362, "\u2581gun": 2363, "\u2581advanced": 2364, "\u2581Roman": 2365, "\u2581pages": 2366, "po": 2367, "\u2581corner": 2368, "br": 2369, "\u2581edge": 2370, "ger": 2371, "\u2581coast": 2372, "\u25811970": 2373, "\u2581trouble": 2374, "\u2581Services": 2375, "\u2581fair": 2376, "ford": 2377, "ft": 2378, "\u2581clearly": 2379, "\u2581tools": 2380, "\u2581Force": 2381, "\u2581stocks": 2382, "\u2581display": 2383, "\u2581communities": 2384, "\u2581Business": 2385, "\u2581Like": 2386, "\u2581nor": 2387, "ten": 2388, "not": 2389, "uk": 2390, "town": 2391, "can": 2392, "\u2581proposal": 2393, "\u2581removed": 2394, "\u2581increasing": 2395, "\u2581murder": 2396, "\u2581connection": 2397, "\u2581meaning": 2398, "\u2581identified": 2399, "\u2581bus": 2400, "\u2581Pacific": 2401, "\u2581document": 2402, "\u2581winter": 2403, "\u2581driver": 2404, "\u2581environmental": 2405, "\u2581Education": 2406, "\u2581Greek": 2407, "\u2581Justice": 2408, "cha": 2409, "long": 2410, "ru": 2411, "\u2581therefore": 2412, "\u2581county": 2413, "casinos": 2414, "\u258170": 2415, "chi": 2416, "\u2581stuff": 2417, "gen": 2418, "\u2581selling": 2419, "\u2581professor": 2420, "\u258132": 2421, "\u2581block": 2422, "\u2581files": 2423, "\u2581casinos": 2424, "\u2581brand": 2425, "\u2581eastern": 2426, "\u2581Per": 2427, "\u2581Three": 2428, "\u2581memory": 2429, "\u2581university": 2430, "\u2581owned": 2431, "60": 2432, "\u2581freedom": 2433, "\u2581tough": 2434, "\u2581favorite": 2435, "\u2581wind": 2436, "\u2581criminal": 2437, "but": 2438, "\u2581citizens": 2439, "\u2581ban": 2440, "\u2581watching": 2441, "\u2581actions": 2442, "\u2581bodies": 2443, "\u2581discovered": 2444, "\u2581rebels": 2445, "\u2581secret": 2446, "\u2581allowing": 2447, "\u2581centre": 2448, "\u2581houses": 2449, "\u2581500": 2450, "\u2581interests": 2451, "\u2581feed": 2452, "\u258180": 2453, "\u2581authority": 2454, "\u2581continues": 2455, "\u2581interesting": 2456, "\u2581transfer": 2457, "\u2581warm": 2458, "\u2581unless": 2459, "ab": 2460, "ee": 2461, "\u2581Chi": 2462, "\u2581Francisco": 2463, "\u2581negotiations": 2464, "\u2581seconds": 2465, "\u2581matches": 2466, "\u2581Henry": 2467, "\u2581Turkey": 2468, "75": 2469, "\u2581quoted": 2470, "\u2581marriage": 2471, "\u2581finding": 2472, "\u2581consumer": 2473, "q": 2474, "\u2581Conference": 2475, "\u2581internet": 2476, "\u2581audience": 2477, "\u2581artist": 2478, "\u2581Big": 2479, "\u2581advice": 2480, "\u2581bomb": 2481, "\u2581Only": 2482, "\u2581la": 2483, "\u2581crew": 2484, "\u2581accepted": 2485, "\u2581length": 2486, "\u2581mobile": 2487, "\u2581route": 2488, "\u2581assistance": 2489, "\u2581confidence": 2490, "\u2581Microsoft": 2491, "\u2581closer": 2492, "\u2581smile": 2493, "\u2581foot": 2494, "\u2581suffered": 2495, "\u2581conducted": 2496, "poker": 2497, "\u2581launch": 2498, "\u2581denied": 2499, "\u2581guys": 2500, "\u2581illegal": 2501, "\u25812014": 2502, "\u2581intelligence": 2503, "\u2581Har": 2504, "\u2581Tu": 2505, "\u2581download": 2506, "\u2581birth": 2507, "\u2581package": 2508, "\u2581labor": 2509, "\u2581incident": 2510, "\u2581advance": 2511, "\u2581characters": 2512, "\u2581failure": 2513, "\u2581eat": 2514, "ite": 2515, "\u2581balance": 2516, "ung": 2517, "\u2581cultural": 2518, "\u2581summit": 2519, "\u2581commission": 2520, "\u25812013": 2521, "\u2581writer": 2522, "\u2581politics": 2523, "\u2581Christmas": 2524, "\u2581settlement": 2525, "\u2581Valley": 2526, "\u2581mainly": 2527, "\u2581ice": 2528, "She": 2529, "tro": 2530, "\u2581seeing": 2531, "\u2581photo": 2532, "\u2581fellow": 2533, "\u2581resolution": 2534, "\u2581cards": 2535, "&": 2536, "\u2581girls": 2537, "\u2581haven": 2538, "\u2581awarded": 2539, "\u2581governor": 2540, "\u2581Ha": 2541, "\u2581gained": 2542, "\u2581requires": 2543, "\u2581Christ": 2544, "\u2581doubt": 2545, "\u2581Jo": 2546, "\u2581Museum": 2547, "ki": 2548, "\u2581Carolina": 2549, "\u2581academic": 2550, "\u2581tree": 2551, "\u2581approximately": 2552, "\u2581armed": 2553, "je": 2554, "ong": 2555, "\u2581mortgage": 2556, "\u2581Georgia": 2557, "\u2581sit": 2558, "\u2581Long": 2559, "ron": 2560, "\u2581largely": 2561, "\u2581earned": 2562, "ray": 2563, "Re": 2564, "\u2581attend": 2565, "\u258145": 2566, "\u2581methods": 2567, "\u2581metal": 2568, "\u2581leg": 2569, "\u2581panel": 2570, "\u2581delivery": 2571, "point": 2572, "\u2581promote": 2573, "\u2581declined": 2574, "\u2581otherwise": 2575, "\u2581funding": 2576, "izing": 2577, "\u2581task": 2578, "\u2581silver": 2579, "\u2581Hu": 2580, "\u2581Music": 2581, "hi": 2582, "For": 2583, "\u2581Gaza": 2584, "\u2581patient": 2585, "\u2581secure": 2586, "\u2581occurred": 2587, "\u2581notice": 2588, "\u2581push": 2589, "\u2581soft": 2590, "\u2581Well": 2591, "\u2581legislation": 2592, "\u2581determined": 2593, "\u2581attorney": 2594, "jo": 2595, "vi": 2596, "\u2581extended": 2597, "\u2581worst": 2598, "\u2581keeping": 2599, "\u2581featured": 2600, "\u2581shooting": 2601, "\u2581alternative": 2602, "\u2581coverage": 2603, "\u2581analysts": 2604, "\u2581novel": 2605, "\u2581path": 2606, "\u25812015": 2607, "\u2581Meanwhile": 2608, "\u2581animals": 2609, "\u2581counter": 2610, "\u2581selection": 2611, "ence": 2612, "\u2581Dan": 2613, "\u2581Dec": 2614, "\u2581owners": 2615, "\u2581filled": 2616, "\u2581Foundation": 2617, "\u2581sitting": 2618, "\u2581fill": 2619, "\u2581reduced": 2620, "\u2581flat": 2621, "don": 2622, "\u2581Science": 2623, "\u2581widely": 2624, "\u2581shop": 2625, "\u2581models": 2626, "\u2581Information": 2627, "\u2581rich": 2628, "\u2581seats": 2629, "\u2581native": 2630, "\u2581agent": 2631, "\u2581declared": 2632, "\u2581Championship": 2633, "\u2581handle": 2634, "\u2581easier": 2635, "\u2581whatever": 2636, "low": 2637, "\u2581institutions": 2638, "\u2581secretary": 2639, "\u258190": 2640, "\u2581Van": 2641, "\u2581coalition": 2642, "han": 2643, "\u2581justice": 2644, "\u2581rising": 2645, "\u2581regarding": 2646, "\u2581mark": 2647, "\u2581views": 2648, "\u2581appeal": 2649, "\u2581Today": 2650, "\u2581`": 2651, "\u2581decade": 2652, "\u2581super": 2653, "ho": 2654, "\u2581rain": 2655, "\u2581Bob": 2656, "\u2581Scott": 2657, "\u2581Frank": 2658, "\u2581Northern": 2659, "\u2581broken": 2660, "\u2581focused": 2661, "\u2581elements": 2662, "\u2581ethnic": 2663, "\u2581Director": 2664, "\u2581Southern": 2665, "ology": 2666, "\u2581opinion": 2667, "\u2581exercise": 2668, "\u2581hadn": 2669, "\u2581combined": 2670, "\u2581Year": 2671, "\u2581Supreme": 2672, "\u2581fired": 2673, "\u2581Academy": 2674, "\u2581teaching": 2675, "Do": 2676, "\u2581testing": 2677, "\u2581Those": 2678, "\u2581approval": 2679, "\u2581wine": 2680, "\u2581trees": 2681, "\u2581wounded": 2682, "our": 2683, "\u2581Tour": 2684, "\u2581Jim": 2685, "vo": 2686, "\u2581visitors": 2687, "\u2581Star": 2688, "\u2581territory": 2689, "\u2581headed": 2690, "\u2581knows": 2691, "99": 2692, "war": 2693, "\u2581boat": 2694, "\u2581positions": 2695, "\u2581Women": 2696, "\u2581Among": 2697, "\u2581Journal": 2698, "\u2581relief": 2699, "\u2581carrying": 2700, "\u2581films": 2701, "\u2581Social": 2702, "\u2581tests": 2703, "\u2581solid": 2704, "\u2581putting": 2705, "\u2581cells": 2706, "\u2581Old": 2707, "\u25811992": 2708, "\u2581remove": 2709, "\u2581Te": 2710, "\u2581equal": 2711, "\u2581excellent": 2712, "\u2581breath": 2713, "\u2581Brazil": 2714, "\u2581pull": 2715, "\u2581extremely": 2716, "\u2581Joseph": 2717, "\u2581gift": 2718, "month": 2719, "\u2581hopes": 2720, "\u2581v": 2721, "head": 2722, "When": 2723, "\u2581dance": 2724, "\u2581male": 2725, "\u25811960": 2726, "\u2581aware": 2727, "80": 2728, "\u2581pair": 2729, "American": 2730, "bi": 2731, "_": 2732, "\u2581$3": 2733, "\u2581die": 2734, "\u2581Joe": 2735, "\u2581artists": 2736, "\u2581achieve": 2737, "\u2581yards": 2738, "\u2581editor": 2739, "\u2581kilometers": 2740, "\u2581shoulder": 2741, "pi": 2742, "\u2581Chief": 2743, "\u2581defeat": 2744, "\u2581Best": 2745, "\u2581actual": 2746, "\u2581sought": 2747, "\u2581com": 2748, "\u2581climate": 2749, "\u2581shared": 2750, "\u25811993": 2751, "\u2581Exchange": 2752, "gar": 2753, "ez": 2754, "fer": 2755, "28": 2756, "\u2581Singapore": 2757, "\u2581Jesus": 2758, "\u2581buying": 2759, "\u2581Republicans": 2760, "\u2581finance": 2761, "hu": 2762, "\u2581useful": 2763, "\u2581Ko": 2764, "27": 2765, "\u2581Ali": 2766, "\u2581reality": 2767, "\u2581becomes": 2768, "\u2581Louis": 2769, "\u2581Si": 2770, "\u2581perform": 2771, "\u2581Y": 2772, "\u2581affected": 2773, "\u2581device": 2774, "\u2581dry": 2775, "\u2581aimed": 2776, "\u2581speaking": 2777, "\u2581payment": 2778, "\u2581picked": 2779, "\u2581blog": 2780, "\u2581accident": 2781, "\u2581Life": 2782, "70": 2783, "\u2581experienced": 2784, "\u2581Palestinians": 2785, "35": 2786, "\u2581shape": 2787, "\u2581watched": 2788, "\u2581snow": 2789, "\u2581pounds": 2790, "\u2581Earth": 2791, "\u2581stations": 2792, "\u2581pieces": 2793, "\u2581Moscow": 2794, "ju": 2795, "\u2581guide": 2796, "\u2581Still": 2797, "\u2581streets": 2798, "\u2581Stock": 2799, "sch": 2800, "\u2581truck": 2801, "bit": 2802, "\u2581Good": 2803, "\u2581teacher": 2804, "\u2581worldwide": 2805, "\u2581unable": 2806, "\u2581Olympics": 2807, "\u2581surprise": 2808, "\u2581Am": 2809, "\u2581leaves": 2810, "\u2581immediate": 2811, "23": 2812, "\u2581suit": 2813, "\u2581classes": 2814, "\u2581registered": 2815, "wing": 2816, "\u2581Jackson": 2817, "\u2581theory": 2818, "fa": 2819, "\u2581Baghdad": 2820, "29": 2821, "\u2581master": 2822, "\u2581copy": 2823, "\u2581plus": 2824, "\u2581Will": 2825, "\u2581missed": 2826, "\u2581tool": 2827, "mm": 2828, "\u2581Chris": 2829, "\u2581f": 2830, "\u2581Trade": 2831, "\u2581signs": 2832, "\u2581Instead": 2833, "\u2581Let": 2834, "\u2581minor": 2835, "\u2581limit": 2836, "\u2581studio": 2837, "Yes": 2838, "\u2581revenue": 2839, "\u25811991": 2840, "\u2581sexual": 2841, "\u2581episode": 2842, "\u2581relatively": 2843, "ino": 2844, "\u2581electronic": 2845, "\u2581conduct": 2846, "\u2581retired": 2847, "\u2581stars": 2848, "\u2581distribution": 2849, "\u2581discussion": 2850, "\u2581Sept": 2851, "\u2581represented": 2852, "tu": 2853, "\u2581internal": 2854, "\u2581Windows": 2855, "\u2581faith": 2856, "qui": 2857, "\u2581assistant": 2858, "\u2581stores": 2859, "\u2581asking": 2860, "ward": 2861, "\u2581arrest": 2862, "\u2581facility": 2863, "\u2581kitchen": 2864, "si": 2865, "\u2581neck": 2866, "class": 2867, "ball": 2868, "\u2581Land": 2869, "\u2581animal": 2870, "\u2581Ta": 2871, "\u2581Defense": 2872, "\u2581votes": 2873, "ani": 2874, "\u2581Steve": 2875, "\u2581chest": 2876, "\u2581coffee": 2877, "\u2581massive": 2878, "\u2581CD": 2879, "\u2581slowly": 2880, "\u2581accounts": 2881, "\u2581supposed": 2882, "\u2581articles": 2883, "\u25812016": 2884, "\u2581struck": 2885, "\u2581suicide": 2886, "\u2581generation": 2887, "\u2581lay": 2888, "\u2581Un": 2889, "\u2581Irish": 2890, "\u2581decisions": 2891, "\u2581championship": 2892, "\u2581orders": 2893, "\u2581draft": 2894, "\u2581healthy": 2895, "22": 2896, "wan": 2897, "\u2581port": 2898, "\u2581urged": 2899, "\u2581correct": 2900, "\u2581Coast": 2901, "\u2581steel": 2902, "\u2581holiday": 2903, "\u2581hundred": 2904, "\u2581taxes": 2905, "\u2581possibly": 2906, "\u2581Agency": 2907, "\u2581turning": 2908, "\u2581advertising": 2909, "\u2581willing": 2910, "\u2581mentioned": 2911, "ator": 2912, "\u2581consumers": 2913, "\u2581wild": 2914, "\u2581Ad": 2915, "\u2581pushed": 2916, "\u2581defeated": 2917, "\u2581loved": 2918, "yard": 2919, "\u2581chair": 2920, "\u2581select": 2921, "\u2581Management": 2922, "\u2581dangerous": 2923, "\u2581protest": 2924, "\u2581supporters": 2925, "\u2581euro": 2926, "\u2581Kim": 2927, "zi": 2928, "\u2581telling": 2929, "\u2581Tokyo": 2930, "\u2581losses": 2931, "\u2581Dutch": 2932, "\u2581Beach": 2933, "\u2581giant": 2934, "\u2581replace": 2935, "\u2581creation": 2936, "\u2581Jersey": 2937, "AMP": 2938, "90": 2939, "ow": 2940, "\u2581agents": 2941, "\u2581Ra": 2942, "\u2581Ver": 2943, "ative": 2944, "\u2581importance": 2945, "\u2581destroyed": 2946, "\u2581Daniel": 2947, "\u2581terrorist": 2948, "ide": 2949, "\u2581applied": 2950, "\u2581ancient": 2951, "foot": 2952, "\u2581poker": 2953, "\u2581rare": 2954, "To": 2955, "\u2581Mc": 2956, "\u2581guard": 2957, "\u2581horse": 2958, "\u2581Ca": 2959, "ice": 2960, "\u2581volume": 2961, "room": 2962, "\u2581concept": 2963, "\u2581Google": 2964, "\u2581earth": 2965, "\u2581format": 2966, "45": 2967, "\u2581Its": 2968, "\u2581upper": 2969, "che": 2970, "\u2581Ni": 2971, "\u2581recovery": 2972, "\u2581assets": 2973, "\u2581motion": 2974, "\u2581catch": 2975, "\u2581Human": 2976, "down": 2977, "\u2581factors": 2978, "\u2581Following": 2979, "How": 2980, "\u2581negative": 2981, "\u2581values": 2982, "\u2581teachers": 2983, "\u2581Ohio": 2984, "\u2581musical": 2985, "\u2581dream": 2986, "\u2581Second": 2987, "\u2581Latin": 2988, "\u2581manner": 2989, "\u2581Water": 2990, "\u2581worse": 2991, "\u2581library": 2992, "\u2581respond": 2993, "\u2581Da": 2994, "\u2581brief": 2995, "ac": 2996, "\u2581studied": 2997, "26": 2998, "\u2581walking": 2999, "\u2581Use": 3000, "\u2581fields": 3001, "\u2581background": 3002, "\u2581improved": 3003, "\u2581vision": 3004, "\u2581Love": 3005, "use": 3006, "\u2581Gar": 3007, "\u2581maximum": 3008, "\u2581possibility": 3009, "ik": 3010, "\u2581shut": 3011, "\u2581organized": 3012, "\u2581Program": 3013, "\u2581recognized": 3014, "\u2581Egypt": 3015, "\u2581farm": 3016, "gu": 3017, "\u2581essential": 3018, "pur": 3019, "\u2581bond": 3020, "\u2581headquarters": 3021, "\u2581flow": 3022, "\u2581camera": 3023, "\u2581Blue": 3024, "\u2581sport": 3025, "\u2581Ford": 3026, "\u2581pictures": 3027, "\u2581holds": 3028, "\u2581Time": 3029, "\u2581begins": 3030, "\u2581currency": 3031, "\u2581Taliban": 3032, "ig": 3033, "\u2581core": 3034, "\u2581Vietnam": 3035, "\u2581storm": 3036, "\u2581broadcast": 3037, "\u2581pop": 3038, "\u2581$2": 3039, "\u2581client": 3040, "din": 3041, "\u2581earnings": 3042, "\u2581wedding": 3043, "law": 3044, "Oh": 3045, "\u2581behavior": 3046, "\u2581bringing": 3047, "Q": 3048, "\u2581meetings": 3049, "\u2581rejected": 3050, "\u2581dedicated": 3051, "\u2581Cross": 3052, "\u2581schedule": 3053, "\u2581fan": 3054, "\u2581historical": 3055, "\u2581communication": 3056, "\u2581ceremony": 3057, "\u2581combat": 3058, "\u2581refer": 3059, "\u2581alleged": 3060, "\u2581regime": 3061, "\u2581zone": 3062, "\u2581See": 3063, "\u2581captain": 3064, "\u2581revealed": 3065, "\u2581Rock": 3066, "more": 3067, "ara": 3068, "\u2581Pa": 3069, "\u2581apparently": 3070, "\u2581deputy": 3071, "\u2581scientific": 3072, "\u2581dinner": 3073, "\u2581Ba": 3074, "ium": 3075, "\u2581Sir": 3076, "\u2581facing": 3077, "\u2581visited": 3078, "ever": 3079, "see": 3080, "\u2581platform": 3081, "\u2581fashion": 3082, "\u2581linked": 3083, "\u2581analyst": 3084, "\u2581stone": 3085, "\u2581contributed": 3086, "\u2581typically": 3087, "\u2581explain": 3088, "\u2581practices": 3089, "\u2581independence": 3090, "\u2581starts": 3091, "\u2581Ten": 3092, "\u2581reference": 3093, "\u2581Power": 3094, "\u2581shopping": 3095, "\u2581broad": 3096, "\u2581initially": 3097, "\u2581Gulf": 3098, "\u2581Parliament": 3099, "\u2581split": 3100, "\u2581km": 3101, "\u2581chosen": 3102, "\u2581Pan": 3103, "\u2581contain": 3104, "\u2581Gold": 3105, "\u2581Young": 3106, "\u2581wearing": 3107, "\u2581Ki": 3108, "\u2581represent": 3109, "\u2581changing": 3110, "\u2581admitted": 3111, "ud": 3112, "\u2581decline": 3113, "\u2581marked": 3114, "\u2581Fa": 3115, "\u2581warning": 3116, "hour": 3117, "\u2581Ke": 3118, "\u2581surgery": 3119, "ability": 3120, "\u2581grand": 3121, "\u2581proper": 3122, "\u2581receiving": 3123, "\u2581welcome": 3124, "sk": 3125, "\u2581closely": 3126, "\u2581mountain": 3127, "\u2581notes": 3128, "\u2581Are": 3129, "\u2581Jordan": 3130, "\u2581realize": 3131, "\u2581guess": 3132, "\u2581Click": 3133, "\u2581wear": 3134, "\u2581adopted": 3135, "water": 3136, "\u2581participate": 3137, "ven": 3138, "\u2581transport": 3139, "\u2581terrorism": 3140, "gi": 3141, "\u2581Top": 3142, "pro": 3143, "\u258133": 3144, "tor": 3145, "\u2581increasingly": 3146, "\u2581Davis": 3147, "\u2581bridge": 3148, "\u2581supplies": 3149, "La": 3150, ">": 3151, "gan": 3152, "\u2581bag": 3153, "\u2581Ro": 3154, "\u2581expensive": 3155, "online": 3156, "\u2581Ku": 3157, "]": 3158, "\u2581Gen": 3159, "\u2581Hospital": 3160, "\u2581Eastern": 3161, "\u2581Sha": 3162, "\u2581Michigan": 3163, "wi": 3164, "ible": 3165, "\u2581referred": 3166, "\u2581button": 3167, "\u2581opposed": 3168, "\u2581acting": 3169, "\u2581treated": 3170, "\u2581AFP": 3171, "\u2581Several": 3172, "\u2581restaurant": 3173, "As": 3174, "\u2581youth": 3175, "\u2581pool": 3176, "ning": 3177, "\u2581combination": 3178, "\u2581suggest": 3179, "\u2581familiar": 3180, "level": 3181, "\u2581delivered": 3182, "\u2581none": 3183, "\u2581rural": 3184, "\u2581Fund": 3185, "\u2581younger": 3186, "\u2581poll": 3187, "\u2581commitment": 3188, "\u2581Real": 3189, "\u2581abuse": 3190, "\u2581suspected": 3191, "su": 3192, "EC": 3193, "\u2581occur": 3194, "\u2581goods": 3195, "ure": 3196, "\u2581affect": 3197, "ities": 3198, "\u2581PC": 3199, "\u2581Indonesia": 3200, "\u2581identify": 3201, "\u2581pointed": 3202, "\u2581rooms": 3203, "\u2581print": 3204, "\u2581Test": 3205, "\u2581Four": 3206, "van": 3207, "\u2581object": 3208, "\u2581doctors": 3209, "bet": 3210, "\u2581militants": 3211, "\u2581surrounding": 3212, "\u2581300": 3213, "let": 3214, "\u2581quiet": 3215, "berg": 3216, "42": 3217, "\u2581promised": 3218, "\u2581purposes": 3219, "\u2581legs": 3220, "\u2581partners": 3221, "\u2581fly": 3222, "\u2581Team": 3223, "\u2581USA": 3224, "\u2581solutions": 3225, "\u2581Pennsylvania": 3226, "\u2581properties": 3227, "\u2581expert": 3228, "\u2581Ne": 3229, "\u2581aren": 3230, "\u2581Vi": 3231, "\u2581Navy": 3232, "\u2581semi": 3233, "\u2581Saudi": 3234, "\u2581expression": 3235, "ren": 3236, "\u2581historic": 3237, "\u2581Matt": 3238, "\u2581wonderful": 3239, "32": 3240, "which": 3241, "\u2581category": 3242, "\u2581permanent": 3243, "\u2581mixed": 3244, "\u2581Though": 3245, "\u2581apartment": 3246, "5%": 3247, "\u258136": 3248, "\u2581cuts": 3249, "\u2581photos": 3250, "\u2581comfortable": 3251, "\u2581Mexican": 3252, "\u2581worry": 3253, "\u2581Bi": 3254, "\u2581crimes": 3255, "star": 3256, "\u2581Special": 3257, "\u2581Com": 3258, "\u2581devices": 3259, "\u2581captured": 3260, "\u2581amid": 3261, "\u2581rival": 3262, "with": 3263, "\u2581channel": 3264, "\u2581Yet": 3265, "\u2581techniques": 3266, "\u2581fingers": 3267, "\u2581pace": 3268, "\u2581Every": 3269, "\u2581explained": 3270, "\u2581personnel": 3271, "\u2581helps": 3272, "All": 3273, "\u2581baseball": 3274, "\u2581Assembly": 3275, "\u2581falling": 3276, "era": 3277, "\u2581ties": 3278, "\u2581formal": 3279, "\u2581fat": 3280, "\u2581escape": 3281, "du": 3282, "\u2581faced": 3283, "\u2581chain": 3284, "ries": 3285, "\u2581injuries": 3286, "ised": 3287, "\u2581conservative": 3288, "\u2581percentage": 3289, "\u2581Jean": 3290, "\u2581truly": 3291, "sky": 3292, "\u2581lips": 3293, "\u2581deliver": 3294, "\u258165": 3295, "48": 3296, "\u2581Associated": 3297, "air": 3298, "\u2581Poland": 3299, "\u2581manage": 3300, "\u2581medicine": 3301, "\u2581wood": 3302, "\u2581heads": 3303, "\u2581continuing": 3304, "win": 3305, "\u2581desire": 3306, "ap": 3307, "\u2581frequently": 3308, "\u2581courses": 3309, "sha": 3310, "\u2581Province": 3311, "\u2581reviews": 3312, "\u2581favor": 3313, "uh": 3314, "\u2581Fox": 3315, "\u2581Fort": 3316, "ane": 3317, "\u2581Mi": 3318, "\u2581Va": 3319, "\u2581penalty": 3320, "\u2581sets": 3321, "\u2581offices": 3322, "\u2581minimum": 3323, "\u2581producer": 3324, "\u2581educational": 3325, "36": 3326, "har": 3327, "\u2581ruled": 3328, "\u2581realized": 3329, "\u2581tight": 3330, "\u2581ending": 3331, "\u2581threatened": 3332, "\u2581purchased": 3333, "\u2581Medical": 3334, "\u2581considering": 3335, "\u2581fee": 3336, "\u2581Show": 3337, "\u2581Network": 3338, "\u2581heavily": 3339, "\u2581Net": 3340, "stone": 3341, "\u2581Tony": 3342, "\u2581suddenly": 3343, "\u2581campus": 3344, "\u2581divided": 3345, "\u2581sharp": 3346, "\u2581drink": 3347, "rate": 3348, "\u25812017": 3349, "\u2581factor": 3350, "\u2581king": 3351, "pre": 3352, "\u2581sweet": 3353, "\u2581map": 3354, "\u2581wave": 3355, "\u2581assist": 3356, "row": 3357, "\u2581ideal": 3358, "\u2581honor": 3359, "\u2581discussed": 3360, "related": 3361, "form": 3362, "44": 3363, "\u2581drawn": 3364, "\u2581paying": 3365, "\u2581Any": 3366, "\u2581windows": 3367, "\u2581commander": 3368, "\u2581Later": 3369, "tin": 3370, "\u2581vs": 3371, "\u2581passengers": 3372, "\u2581Call": 3373, "oc": 3374, "\u2581primarily": 3375, "\u2581lawyers": 3376, "\u2581contrast": 3377, "par": 3378, "TV": 3379, "\u2581jump": 3380, "ini": 3381, "\u2581definitely": 3382, "08": 3383, "\u2581Houston": 3384, "\u2581greatest": 3385, "\u2581storage": 3386, "\u2581Arts": 3387, "\u2581output": 3388, "\u2581scale": 3389, "\u2581Inter": 3390, "\u2581beach": 3391, "\u2581prove": 3392, "\u2581Turkish": 3393, "\u2581Kingdom": 3394, "\u2581Festival": 3395, "\u2581walls": 3396, "\u2581taught": 3397, "\u2581happens": 3398, "\u2581Ja": 3399, "\u2581stepped": 3400, "\u2581forest": 3401, "\u2581Radio": 3402, "\u2581Za": 3403, "\u2581severe": 3404, "ot": 3405, "\u2581Order": 3406, "\u2581fees": 3407, "\u2581boost": 3408, "\u2581Thailand": 3409, "\u2581medium": 3410, "\u2581ride": 3411, "\u2581criticism": 3412, "ita": 3413, "\u2581edition": 3414, "\u2581Col": 3415, "\u2581returning": 3416, "ura": 3417, "\u2581Series": 3418, "\u2581waste": 3419, "\u2581Iranian": 3420, "\u2581expansion": 3421, "\u258134": 3422, "\u2581Port": 3423, "\u2581spirit": 3424, "\u2581Energy": 3425, "\u2581Mrs": 3426, "\u2581employment": 3427, "\u2581connected": 3428, "\u2581inflation": 3429, "\u2581railway": 3430, "\u2581instance": 3431, "art": 3432, "\u2581attacked": 3433, "\u2581boys": 3434, "\u2581ships": 3435, "\u2581Jr": 3436, "49": 3437, "\u2581exist": 3438, "\u2581supporting": 3439, "\u2581Tri": 3440, "\u2581server": 3441, "\u2581brown": 3442, "\u2581Arizona": 3443, "\u2581seriously": 3444, "\u2581granted": 3445, "\u2581fought": 3446, "\u2581ministers": 3447, "\u2581voted": 3448, "\u2581membership": 3449, "\u2581letters": 3450, "cur": 3451, "\u2581passing": 3452, "\u2581Maybe": 3453, "vin": 3454, "\u2581Po": 3455, "\u2581chemical": 3456, "\u2581Community": 3457, "\u2581involving": 3458, "\u2581Far": 3459, "\u2581Sri": 3460, "\u2581association": 3461, "\u2581faces": 3462, "\u2581Hamas": 3463, "55": 3464, "ery": 3465, "\u2581thanks": 3466, "De": 3467, "euro": 3468, "\u2581leads": 3469, "\u2581visiting": 3470, "\u2581rescue": 3471, "\u2581payments": 3472, "dis": 3473, "\u2581alive": 3474, "\u2581Massachusetts": 3475, "\u2581entirely": 3476, "\u2581faster": 3477, "\u2581basketball": 3478, "\u2581rebel": 3479, "\u2581license": 3480, "\u2581Ban": 3481, "\u2581fixed": 3482, "\u2581Project": 3483, "\u2581recommended": 3484, "\u2581twenty": 3485, "\u2581roof": 3486, "ding": 3487, "\u2581Football": 3488, "34": 3489, "\u2581neighborhood": 3490, "\u2581expand": 3491, "\u2581reaction": 3492, "\u2581yellow": 3493, "bu": 3494, "\u2581closing": 3495, "\u2581ones": 3496, "\u2581count": 3497, "ou": 3498, "\u2581Town": 3499, "\u25811950": 3500, "\u2581Who": 3501, "\u2581establish": 3502, "38": 3503, "mon": 3504, "\u2581portion": 3505, "\u2581Technology": 3506, "\u2581challenges": 3507, "\u2581Swiss": 3508, "\u2581plastic": 3509, "\u2581offensive": 3510, "ng": 3511, "\u2581x": 3512, "ably": 3513, "\u2581laid": 3514, "\u2581Airport": 3515, "\u2581lies": 3516, "\u2581THE": 3517, "ok": 3518, "\u2581narrow": 3519, "\u2581impossible": 3520, "\u2581grown": 3521, "\u2581Organization": 3522, "\u2581classic": 3523, "tan": 3524, "cu": 3525, "\u2581Prince": 3526, "Well": 3527, "\u2581database": 3528, "\u2581Tim": 3529, "47": 3530, "ky": 3531, "\u2581$5": 3532, "\u2581tracks": 3533, "\u2581Apple": 3534, "\u2581causes": 3535, "\u2581Columbia": 3536, "\u2581affairs": 3537, "mp": 3538, "\u2581Up": 3539, "\u2581newly": 3540, "ture": 3541, "\u2581signal": 3542, "\u2581recording": 3543, "\u2581Par": 3544, "\u2581suffering": 3545, "\u2581researchers": 3546, "\u2581movies": 3547, "\u2581sixth": 3548, "book": 3549, "\u2581Afghan": 3550, "\u2581obtained": 3551, "work": 3552, "\u2581circumstances": 3553, "\u2581sending": 3554, "\u2581Saint": 3555, "\u2581meters": 3556, "\u2581extensive": 3557, "\u2581Administration": 3558, "\u2581row": 3559, "\u2581ring": 3560, "\u2581Sch": 3561, "39": 3562, "hr": 3563, "3,": 3564, "Ma": 3565, "state": 3566, "\u2581urban": 3567, "\u2581retirement": 3568, "called": 3569, "\u2581weak": 3570, "\u2581Bur": 3571, "\u2581stands": 3572, "\u2581Summer": 3573, "cher": 3574, "Don": 3575, "\u2581monthly": 3576, "\u2581hoped": 3577, "\u2581dozen": 3578, "\u2581Lebanon": 3579, "\u2581conversation": 3580, "\u2581representative": 3581, "\u2581scientists": 3582, "\u2581neither": 3583, "ble": 3584, "\u2581museum": 3585, "\u2581usual": 3586, "\u2581cap": 3587, "\u2581competitive": 3588, "\u2581differences": 3589, "\u2581turns": 3590, "\u2581prepare": 3591, "\u2581singer": 3592, "\u2581clothes": 3593, "\u2581regions": 3594, "hand": 3595, "\u2581Colorado": 3596, "gy": 3597, "\u2581Jose": 3598, "\u2581sight": 3599, "\u2581surprised": 3600, "\u2581hall": 3601, "\u2581settled": 3602, "\u2581apart": 3603, "\u2581announcement": 3604, "\u2581cable": 3605, "\u2581Out": 3606, "tz": 3607, "\u2581Major": 3608, "\u2581wonder": 3609, "\u2581covers": 3610, "Why": 3611, "\u2581Pe": 3612, "\u2581detailed": 3613, "\u2581Rome": 3614, "\u2581hoping": 3615, "\u2581permission": 3616, "\u2581tend": 3617, "37": 3618, "\u2581Gi": 3619, "\u2581reaching": 3620, "\u2581obtain": 3621, "\u2581guilty": 3622, "\u2581medal": 3623, "\u2581indicated": 3624, "\u2581mayor": 3625, "\u2581Miami": 3626, "\u2581struggle": 3627, "\u2581phase": 3628, "\u2581Ken": 3629, "\u2581Stephen": 3630, "\u2581Queen": 3631, "\u2581cup": 3632, "ix": 3633, "\u2581relevant": 3634, "\u2581dress": 3635, "\u2581Take": 3636, "\u2581encourage": 3637, "\u2581publication": 3638, "\u2581adult": 3639, "\u2581cheap": 3640, "\u2581Santa": 3641, "\u2581tells": 3642, "\u2581identity": 3643, "\u2581Bre": 3644, "\u2581Game": 3645, "\u2581era": 3646, "\u2581firms": 3647, "NA": 3648, "\u2581Make": 3649, "\u2581item": 3650, "02": 3651, "\u2581shook": 3652, "\u2581specifically": 3653, "mal": 3654, "\u2581follows": 3655, "\u2581System": 3656, "val": 3657, "\u2581flying": 3658, "\u2581knowing": 3659, "\u2581thick": 3660, "\u2581golf": 3661, "\u2581grant": 3662, "\u2581diet": 3663, "\u2581causing": 3664, "\u2581administrative": 3665, "31": 3666, "\u2581friendly": 3667, "\u2581computers": 3668, "\u2581Hotel": 3669, "mus": 3670, "game": 3671, "\u2581degrees": 3672, "ns": 3673, "ano": 3674, "\u2581Vice": 3675, "ware": 3676, "\u2581throw": 3677, "\u2581hell": 3678, "\u2581jail": 3679, "\u2581empty": 3680, "ski": 3681, "\u2581religion": 3682, "\u2581sounds": 3683, "\u2581duty": 3684, "ions": 3685, "\u258137": 3686, "\u2581invited": 3687, "\u2581foundation": 3688, "\u2581represents": 3689, "\u2581Cha": 3690, "\u2581promise": 3691, "\u2581acquired": 3692, "\u2581Kansas": 3693, "\u2581tied": 3694, "\u2581Index": 3695, "\u2581retail": 3696, "\u2581serves": 3697, "\u2581Book": 3698, "01": 3699, "\u2581programme": 3700, "\u2581races": 3701, "\u2581$4": 3702, "\u2581tiny": 3703, "\u2581amazing": 3704, "ram": 3705, "\u2581miss": 3706, "\u2581Andrew": 3707, "\u2581Centre": 3708, "\u2581branch": 3709, "\u2581Oct": 3710, "yl": 3711, "\u25811989": 3712, "\u2581smiled": 3713, "\u2581critics": 3714, "\u2581mis": 3715, "ps": 3716, "\u2581garden": 3717, "\u2581operated": 3718, "\u258148": 3719, "cer": 3720, "\u2581compete": 3721, "\u2581officially": 3722, "\u2581Taylor": 3723, "\u2581Ray": 3724, "\u2581soil": 3725, "\u2581millions": 3726, "\u2581motor": 3727, "\u2581mental": 3728, "istic": 3729, "\u2581functions": 3730, "\u2581Wales": 3731, "life": 3732, "\u2581drama": 3733, "round": 3734, "\u2581infrastructure": 3735, "\u2581taste": 3736, "\u2581shortly": 3737, "\u2581demands": 3738, "05": 3739, "\u2581Philadelphia": 3740, "\u2581achieved": 3741, "mas": 3742, "ming": 3743, "cho": 3744, "\u25812010,": 3745, "making": 3746, "\u2581civilians": 3747, "\u2581pattern": 3748, "\u2581attempts": 3749, "\u2581latter": 3750, "shi": 3751, "\u2581Part": 3752, "\u2581Saddam": 3753, "\u2581pilot": 3754, "04": 3755, "ach": 3756, "\u2581comprehensive": 3757, "Mo": 3758, "\u2581Miller": 3759, "\u25812008,": 3760, "07": 3761, "98": 3762, "\u2581inches": 3763, "\u2581believes": 3764, "\u2581consists": 3765, "tain": 3766, "\u2581drew": 3767, "\u2581regulations": 3768, "\u2581Alex": 3769, "\u2581matters": 3770, "\u2581stress": 3771, "\u2581label": 3772, "\u2581context": 3773, "\u2581rear": 3774, "\u2581contained": 3775, "\u2581soul": 3776, "\u2581carefully": 3777, "\u2581flu": 3778, "eh": 3779, "Le": 3780, "\u2581electric": 3781, "\u2581mention": 3782, "\u2581Media": 3783, "\u2581guest": 3784, "\u2581error": 3785, "\u2581squad": 3786, "\u2581powers": 3787, "\u2581prominent": 3788, "\u2581rally": 3789, "\u2581defined": 3790, "\u2581operate": 3791, "\u2581fruit": 3792, "\u2581Alexander": 3793, "ku": 3794, "\u2581forget": 3795, "\u2581Nov": 3796, "\u2581democracy": 3797, "mann": 3798, "ev": 3799, "cal": 3800, "pt": 3801, "65": 3802, "\u2581chart": 3803, "ification": 3804, "\u2581Edward": 3805, "aw": 3806, "\u2581Bra": 3807, "\u2581Such": 3808, "\u2581participants": 3809, "\u2581effectively": 3810, "\u2581sanctions": 3811, "\u2581Bu": 3812, "\u258138": 3813, "\u2581engineering": 3814, "ola": 3815, "\u2581400": 3816, "\u2581vast": 3817, "\u2581Jerusalem": 3818, "\u2581nodded": 3819, "\u2581employee": 3820, "\u2581cutting": 3821, "\u2581representatives": 3822, "\u25811,000": 3823, "\u2581principal": 3824, "\u2581Get": 3825, "\u2581locations": 3826, "now": 3827, "\u2581Note": 3828, "\u2581crash": 3829, "\u2581journey": 3830, "\u2581interior": 3831, "play": 3832, "\u2581sentence": 3833, "\u2581capable": 3834, "\u2581bombing": 3835, "\u2581Simon": 3836, "\u2581sick": 3837, "\u2581installed": 3838, "\u2581acts": 3839, "\u2581Kar": 3840, "ett": 3841, "\u2581diplomatic": 3842, "\u2581calm": 3843, "09": 3844, "act": 3845, "\u2581tradition": 3846, "\u2581Line": 3847, "sp": 3848, "\u2581Sydney": 3849, "\u2581Kosovo": 3850, "\u2581remote": 3851, "\u2581symptoms": 3852, "\u2581temperature": 3853, "\u2581enemy": 3854, "\u2581spokeswoman": 3855, "\u2581manufacturing": 3856, "\u2581sugar": 3857, "\u2581sorry": 3858, "\u2581stayed": 3859, "right": 3860, "\u2581Rep": 3861, "\u2581mix": 3862, "\u2581Cor": 3863, "\u2581flag": 3864, "\u2581scoring": 3865, "\u2581Scotland": 3866, "ius": 3867, "\u2581graduate": 3868, "Al": 3869, "\u2581resulting": 3870, "\u2581hole": 3871, "\u2581Civil": 3872, "\u2581Mon": 3873, "\u25812009,": 3874, "\u2581Bell": 3875, "\u2581Ya": 3876, "\u2581strongly": 3877, "\u2581aspects": 3878, "ula": 3879, "\u2581expectations": 3880, "\u2581dispute": 3881, "ep": 3882, "\u2581yesterday": 3883, "\u2581overseas": 3884, "\u2581par": 3885, "\u25812018": 3886, "\u2581van": 3887, "mit": 3888, "\u2581Little": 3889, "bra": 3890, "\u2581collected": 3891, "\u2581actor": 3892, "\u2581smooth": 3893, "\u2581worried": 3894, "\u2581lots": 3895, "\u2581Film": 3896, "\u2581iron": 3897, "\u2581Sweden": 3898, "\u2581DVD": 3899, "\u2581Illinois": 3900, "\u2581Pat": 3901, "minute": 3902, "46": 3903, "\u2581meat": 3904, "\u2581anywhere": 3905, "\u2581census": 3906, "\u2581audio": 3907, "\u2581fishing": 3908, "\u2581Reserve": 3909, "\u2581argued": 3910, "\u2581capture": 3911, "under": 3912, "\u2581BC": 3913, "\u2581farmers": 3914, "\u2581Online": 3915, "ette": 3916, "\u2581guarantee": 3917, "\u2581successfully": 3918, "\u2581busy": 3919, "\u2581shots": 3920, "\u2581Ltd": 3921, "Ha": 3922, "light": 3923, "\u2581machines": 3924, "\u2581Greece": 3925, "\u2581papers": 3926, "rich": 3927, "fire": 3928, "zo": 3929, "tar": 3930, "\u2581voting": 3931, "\u2581creative": 3932, "\u2581alliance": 3933, "\u2581corruption": 3934, "\u2581treat": 3935, "ari": 3936, "high": 3937, "yn": 3938, "\u2581bright": 3939, "\u2581concert": 3940, "\u2581theme": 3941, "\u2581Governor": 3942, "\u2581Library": 3943, "known": 3944, "\u2581deaths": 3945, "\u2581drawing": 3946, "\u2581controlled": 3947, "\u2581prefer": 3948, "\u2581pan": 3949, "\u2581Bosnia": 3950, "\u2581Wood": 3951, "33": 3952, "\u2581lunch": 3953, "\u2581assault": 3954, "\u2581regularly": 3955, "\u2581entertainment": 3956, "67": 3957, "\u2581grade": 3958, "\u2581trained": 3959, "\u2581expanded": 3960, "\u2581shift": 3961, "member": 3962, "\u2581salt": 3963, "\u2581communications": 3964, "\u2581doors": 3965, "style": 3966, "\u2581shipping": 3967, "\u2581aside": 3968, "\u2581Ed": 3969, "\u2581messages": 3970, "\u2581tie": 3971, "\u2581Jews": 3972, "\u2581Rose": 3973, "\u2581reputation": 3974, "cy": 3975, "\u2581assigned": 3976, "\u2581Hollywood": 3977, "\u2581Corporation": 3978, "\u2581stake": 3979, "97": 3980, "\u2581poverty": 3981, "\u2581Eric": 3982, "med": 3983, "\u2581Bureau": 3984, "\u2581danger": 3985, "\u2581networks": 3986, "ned": 3987, "\u2581governments": 3988, "\u2581tea": 3989, "\u2581plenty": 3990, "\u2581resource": 3991, "ks": 3992, "\u2581adults": 3993, "\u2581gathered": 3994, "\u2581Premier": 3995, "\u2581Syria": 3996, "\u2581titles": 3997, "\u2581bigger": 3998, "ons": 3999, "\u2581Nick": 4000, "\u25812007,": 4001, "\u2581automatically": 4002, "om": 4003, "\u2581arrival": 4004, "\u2581implementation": 4005, "\u2581opposite": 4006, "\u2581smoke": 4007, "\u2581List": 4008, "\u2581Serb": 4009, "ological": 4010, "\u2581Toronto": 4011, "\u2581micro": 4012, "ay": 4013, "AP": 4014, "\u2581submit": 4015, "\u2581moves": 4016, "\u2581Malaysia": 4017, "fe": 4018, "\u2581Brian": 4019, "\u2581listen": 4020, "\u2581proved": 4021, "\u2581Light": 4022, "\u2581Bridge": 4023, "\u2581normally": 4024, "\u2581spiritual": 4025, "\u2581seasons": 4026, "\u2581unknown": 4027, "\u2581stability": 4028, "\u2581entrance": 4029, "\u2581downtown": 4030, "\u2581Ru": 4031, "des": 4032, "\u2581suspect": 4033, "\u2581Executive": 4034, "\u2581custom": 4035, "\u2581Hi": 4036, "\u2581Back": 4037, "\u2581Wilson": 4038, "card": 4039, "\u2581Ms": 4040, "\u2581resistance": 4041, "\u2581wake": 4042, "\u2581earn": 4043, "ros": 4044, "\u2581Avenue": 4045, "\u2581abroad": 4046, "03": 4047, "nes": 4048, "\u2581weekly": 4049, "\u2581afford": 4050, "\u258144": 4051, "ties": 4052, "\u2581cabinet": 4053, "64": 4054, "06": 4055, "\u2581Shi": 4056, "av": 4057, "\u25812011,": 4058, "\u2581thoughts": 4059, "\u2581dlrs": 4060, "\u2581Records": 4061, "\u2581buried": 4062, "ph": 4063, "\u2581Netherlands": 4064, "\u2581Yes": 4065, "\u2581Lewis": 4066, "\u2581prisoners": 4067, "\u2581consecutive": 4068, "\u2581increases": 4069, "\u2581polls": 4070, "\u2581noticed": 4071, "CC": 4072, "Our": 4073, "\u2581hits": 4074, "\u2581tons": 4075, "\u2581150": 4076, "\u2581significantly": 4077, "\u2581Mel": 4078, "\u2581obvious": 4079, "ants": 4080, "\u2581register": 4081, "\u2581comfort": 4082, "\u2581disaster": 4083, "\u2581resort": 4084, "\u2581Kennedy": 4085, "96": 4086, "\u258142": 4087, "\u2581Atlantic": 4088, "\u2581detail": 4089, "\u2581parent": 4090, "\u2581Arafat": 4091, "\u25812006,": 4092, "\u2581electricity": 4093, "\u2581returns": 4094, "\u2581procedures": 4095, "\u2581Feb": 4096, "fin": 4097, "\u2581transferred": 4098, "\u2581eating": 4099, "\u2581processes": 4100, "56": 4101, "\u2581profits": 4102, "\u2581knee": 4103, "\u2581marks": 4104, "\u2581drove": 4105, "\u2581Ze": 4106, "Ro": 4107, "\u2581deals": 4108, "\u2581maintained": 4109, "\u2581qualified": 4110, "\u2581beauty": 4111, "\u2581Mal": 4112, "\u2581chose": 4113, "\u2581deficit": 4114, "ub": 4115, "\u2581lifted": 4116, "\u2581begun": 4117, "lon": 4118, "Yeah": 4119, "nt": 4120, "\u2581contest": 4121, "\u2581recognize": 4122, "eg": 4123, "\u2581repair": 4124, "\u2581civilian": 4125, "66": 4126, "\u2581protests": 4127, "\u2581maintenance": 4128, "\u2581Czech": 4129, "\u2581thin": 4130, "\u2581dealing": 4131, "800": 4132, "\u2581threw": 4133, "\u2581establishment": 4134, "\u2581collect": 4135, "\u2581clubs": 4136, "\u25811988": 4137, "\u2581existence": 4138, "\u2581resulted": 4139, "ical": 4140, "\u2581Minnesota": 4141, "\u2581household": 4142, "41": 4143, "\u2581improvement": 4144, "\u2581[": 4145, "sur": 4146, "\u2581Professor": 4147, "ight": 4148, "\u2581Head": 4149, "\u2581ends": 4150, "\u2581bear": 4151, "\u2581terror": 4152, "\u2581damaged": 4153, "\u2581enforcement": 4154, "\u2581afraid": 4155, "ris": 4156, "\u2581Carl": 4157, "\u2581Berlin": 4158, "\u2581respectively": 4159, "cent": 4160, "\u2581suspended": 4161, "\u2581strategic": 4162, "\u2581enjoyed": 4163, "\u2581partnership": 4164, "$1": 4165, "\u2581Field": 4166, "\u2581raising": 4167, "\u2581Adam": 4168, "\u2581parking": 4169, "\u2581ongoing": 4170, "\u2581replied": 4171, "\u2581sand": 4172, "\u2581Fire": 4173, "\u2581stable": 4174, "\u2581stronger": 4175, "\u2581destruction": 4176, "\u2581hate": 4177, "\u2581flights": 4178, "\u2581talked": 4179, "\u2581insisted": 4180, "\u2581anniversary": 4181, "\u2581objects": 4182, "\u2581properly": 4183, "\u2581promotion": 4184, "\u2581Maria": 4185, "\u2581fiscal": 4186, "\u2581ease": 4187, "\u2581Argentina": 4188, "\u2581victim": 4189, "ken": 4190, "\u2581Seattle": 4191, "\u2581dialogue": 4192, "\u25811/2": 4193, "\u2581brothers": 4194, "\u2581ill": 4195, "\u2581Howard": 4196, "\u2581Affairs": 4197, "\u2581Bowl": 4198, "\u2581mail": 4199, "\u2581replacement": 4200, "\u2581statements": 4201, "some": 4202, "\u2581drivers": 4203, "\u2581tips": 4204, "\u2581transportation": 4205, "\u2581Dar": 4206, "\u2581anyway": 4207, "\u2581lawmakers": 4208, "lock": 4209, "\u2581totally": 4210, "\u2581convicted": 4211, "\u2581Where": 4212, "\u2581exports": 4213, "\u2581Yu": 4214, "\u258149": 4215, "nu": 4216, "43": 4217, "\u2581processing": 4218, "\u2581gains": 4219, "\u2581painting": 4220, "las": 4221, "\u2581Er": 4222, "\u2581Diego": 4223, "\u2581practical": 4224, "lar": 4225, "\u2581technologies": 4226, "\u2581demanded": 4227, "\u2581copies": 4228, "\u2581Dis": 4229, "\u2581Detroit": 4230, "\u2581refugees": 4231, "\u2581teeth": 4232, "ments": 4233, "ye": 4234, "85": 4235, "\u2581banking": 4236, "57": 4237, "set": 4238, "58": 4239, "\u2581frame": 4240, "\u2581vacation": 4241, "\u2581absolutely": 4242, "\u2581prize": 4243, "\u2581Jeff": 4244, "\u2581trend": 4245, "\u2581commonly": 4246, "tes": 4247, "ella": 4248, "lic": 4249, "\u2581awards": 4250, "\u2581transition": 4251, "\u2581stadium": 4252, "\u2581alongside": 4253, "\u2581guests": 4254, "\u2581Thus": 4255, "\u2581dogs": 4256, "fu": 4257, "tel": 4258, "\u2581ultimately": 4259, "\u2581journalists": 4260, "\u2581persons": 4261, "\u2581colors": 4262, "\u2581thousand": 4263, "key": 4264, "\u2581featuring": 4265, "owned": 4266, "\u2581reporting": 4267, "\u2581racing": 4268, "eu": 4269, "\u258147": 4270, "\u2581saved": 4271, "ging": 4272, "\u2581Elizabeth": 4273, "\u2581engaged": 4274, "\u2581Labor": 4275, "ue": 4276, "\u2581confident": 4277, "\u2581indeed": 4278, "\u2581element": 4279, "\u2581Cox": 4280, "\u2581valuable": 4281, "\u2581forum": 4282, "lay": 4283, "\u2581Miss": 4284, "\u2581protected": 4285, "\u2581Mountain": 4286, "ick": 4287, "place": 4288, "\u2581flowers": 4289, "\u2581Mount": 4290, "\u2581seed": 4291, "\u2581writers": 4292, "Star": 4293, "\u2581virus": 4294, "\u2581typical": 4295, "\u2581Egyptian": 4296, "ell": 4297, "\u2581proud": 4298, "\u2581festival": 4299, "\u2581gay": 4300, "\u2581professionals": 4301, "\u2581Ber": 4302, "\u2581Sports": 4303, "ada": 4304, "\u2581tomorrow": 4305, "\u2581Rights": 4306, "\u2581Switzerland": 4307, "\u2581aim": 4308, "\u2581blow": 4309, "\u2581Cuba": 4310, "\u2581privacy": 4311, "\u2581birds": 4312, "\u2581reflect": 4313, "\u2581components": 4314, "://": 4315, "mes": 4316, "\u2581recognition": 4317, "\u2581desk": 4318, "\u2581Ge": 4319, "\u2581Abu": 4320, "59": 4321, "\u2581Station": 4322, "53": 4323, "\u2581Chairman": 4324, "\u2581satellite": 4325, "\u2581blast": 4326, "\u2581versions": 4327, "\u2581Bosnian": 4328, "\u2581alcohol": 4329, "\u2581milk": 4330, "that": 4331, "\u2581Read": 4332, "yo": 4333, "\u2581Ex": 4334, "\u2581Ty": 4335, "\u2581yes": 4336, "\u2581Dallas": 4337, "\u2581survive": 4338, "\u2581Financial": 4339, "\u2581limits": 4340, "\u2581composed": 4341, "SE": 4342, "\u2581kick": 4343, "bed": 4344, "gue": 4345, "\u2581towns": 4346, "ena": 4347, "\u25812005,": 4348, "\u2581extent": 4349, "\u2581Creek": 4350, "\u2581Kevin": 4351, "\u2581literature": 4352, "\u2581resume": 4353, "put": 4354, "86": 4355, "\u2581tickets": 4356, "\u2581passenger": 4357, "\u2581III": 4358, "\u2581height": 4359, "\u2581McCain": 4360, "\u2581concluded": 4361, "\u2581sky": 4362, "\u2581weren": 4363, "\u2581lake": 4364, "ile": 4365, "\u2581crucial": 4366, "\u2581Nu": 4367, "\u2581exit": 4368, "\u2581Food": 4369, "dia": 4370, "\u2581contributions": 4371, "\u2581Economic": 4372, "\u2581Wi": 4373, "ory": 4374, "\u2581principles": 4375, "qua": 4376, "\u2581brings": 4377, "\u2581roads": 4378, "\u2581covering": 4379, "\u2581politicians": 4380, "\u2581formation": 4381, "\u2581Ju": 4382, "IC": 4383, "\u2581Master": 4384, "\u2581somewhat": 4385, "\u2581Have": 4386, "\u2581informed": 4387, "\u2581bonds": 4388, "\u2581guns": 4389, "\u2581Finally": 4390, "\u2581joining": 4391, "\u2581contracts": 4392, "\u2581Area": 4393, "\u2581nose": 4394, "\u2581unusual": 4395, "\u2581residence": 4396, "\u2581Philippines": 4397, "\u2581risks": 4398, "\u2581behalf": 4399, "\u2581violent": 4400, "\u2581evil": 4401, "\u2581courts": 4402, "\u2581bird": 4403, "\u2581Ryan": 4404, "\u2581Cal": 4405, "89": 4406, "\u2581reduction": 4407, "6,": 4408, "\u2581Add": 4409, "\u2581experiences": 4410, "ations": 4411, "\u2581recommend": 4412, "\u2581airline": 4413, "\u2581minority": 4414, "52": 4415, "\u2581export": 4416, "\u2581false": 4417, "\u2581chances": 4418, "\u2581roll": 4419, "\u2581guitar": 4420, "\u2581Stadium": 4421, "\u2581centers": 4422, "gate": 4423, "\u2581Judge": 4424, "\u2581di": 4425, "\u2581heading": 4426, "\u2581rating": 4427, "ea": 4428, "\u2581faculty": 4429, "Co": 4430, "\u2581Communist": 4431, "100": 4432, "\u2581allegations": 4433, "\u2581accord": 4434, "\u2581factory": 4435, "St": 4436, "cor": 4437, "\u2581responses": 4438, "ED": 4439, "\u2581venture": 4440, "ped": 4441, "\u2581Family": 4442, "\u2581relationships": 4443, "\u2581carbon": 4444, "\u2581tonight": 4445, "\u2581Ga": 4446, "\u2581temporary": 4447, "die": 4448, "\u2581Point": 4449, "\u2581arts": 4450, "Be": 4451, "ified": 4452, "\u2581ear": 4453, "\u2581Authority": 4454, "\u2581overnight": 4455, "\u2581happening": 4456, "top": 4457, "del": 4458, "\u2581Gu": 4459, "\u2581submitted": 4460, "fully": 4461, "\u2581sharing": 4462, "part": 4463, "\u2581Fed": 4464, "\u2581innings": 4465, "\u2581attempted": 4466, "\u2581ticket": 4467, "\u258139": 4468, "\u2581inspired": 4469, "oh": 4470, "\u2581representing": 4471, "\u2581angry": 4472, "\u2581containing": 4473, "\u2581criticized": 4474, "\u2581battery": 4475, "\u2581ambassador": 4476, "ria": 4477, "\u2581jury": 4478, "\u2581lowest": 4479, "\u2581executives": 4480, "\u2581shoes": 4481, "\u2581Mass": 4482, "\u2581participation": 4483, "\u2581repeated": 4484, "\u2581Patrick": 4485, "\u2581allies": 4486, "\u2581plot": 4487, "\u2581handed": 4488, "\u2581mom": 4489, "\u2581liberal": 4490, "\u2581requested": 4491, "\u2581argument": 4492, "\u2581Rob": 4493, "\u2581clinical": 4494, "sta": 4495, "\u2581imagine": 4496, "pp": 4497, "\u2581monitoring": 4498, "rin": 4499, "\u2581hired": 4500, "ip": 4501, "\u2581discussions": 4502, "\u2581involvement": 4503, "\u2581beating": 4504, "\u2581Ci": 4505, "\u2581menu": 4506, "\u2581Thai": 4507, "uri": 4508, "\u2581paint": 4509, "\u2581driven": 4510, "\u2581entering": 4511, "\u2581rail": 4512, "\u2581Plan": 4513, "\u2581Pi": 4514, "\u2581ocean": 4515, "\u2581agenda": 4516, "ero": 4517, "ple": 4518, "\u2581Children": 4519, "\u2581enable": 4520, "\u2581humans": 4521, "\u2581ourselves": 4522, "\u2581Nor": 4523, "\u2581Ocean": 4524, "\u2581landscape": 4525, "\u2581seventh": 4526, "\u2581delegation": 4527, "\u2581fears": 4528, "\u2581entitled": 4529, "\u2581signing": 4530, "\u2581invasion": 4531, "Not": 4532, "\u2581Championships": 4533, "\u2581depending": 4534, "\u2581Del": 4535, "\u2581Aug": 4536, "\u2581Check": 4537, "\u2581http": 4538, "63": 4539, "\u2581barely": 4540, "\u2581responded": 4541, "\u2581describe": 4542, "\u2581external": 4543, "\u2581contemporary": 4544, "\u2581extreme": 4545, "py": 4546, "\u2581procedure": 4547, "\u2581Review": 4548, "\u2581soccer": 4549, "\u2581highway": 4550, "\u258175": 4551, "\u2581savings": 4552, "\u2581thank": 4553, "\u2581topic": 4554, "69": 4555, "\u2581rapidly": 4556, "\u2581soldier": 4557, "\u2581Chapter": 4558, "76": 4559, "\u2581assessment": 4560, "\u2581sample": 4561, "ens": 4562, "54": 4563, "\u2581attached": 4564, "\u2581Stone": 4565, "\u2581pet": 4566, "\u2581defend": 4567, "\u2581targets": 4568, "\u2581constitution": 4569, "\u2581repeatedly": 4570, "\u2581FBI": 4571, "\u2581strange": 4572, "\u2581Gore": 4573, "\u2581producing": 4574, "\u2581lift": 4575, "\u2581Site": 4576, "\u2581readers": 4577, "\u2581rapid": 4578, "\u2581teach": 4579, "5,000": 4580, "\u2581suggests": 4581, "\u2581monitor": 4582, "\u2581registration": 4583, "\u2581kinds": 4584, "\u2581NFL": 4585, "\u2581finger": 4586, "ama": 4587, "An": 4588, "\u2581stomach": 4589, "1%": 4590, "\u2581emotional": 4591, "\u2581exposure": 4592, "FL": 4593, "\u2581Han": 4594, "\u2581constructed": 4595, "\u2581throat": 4596, "kar": 4597, "\u2581delay": 4598, "\u2581bin": 4599, "\u2581provider": 4600, "\u2581AP": 4601, "\u2581elsewhere": 4602, "\u2581acknowledged": 4603, "87": 4604, "\u2581explosion": 4605, "3%": 4606, "\u2581cent": 4607, "\u2581concrete": 4608, "\u2581extend": 4609, "\u2581breaking": 4610, "\u2581Khan": 4611, "\u2581noise": 4612, "oon": 4613, "\u2581defensive": 4614, "tch": 4615, "\u2581Students": 4616, "tion": 4617, "\u2581fraud": 4618, "\u258155": 4619, "\u2581extension": 4620, "\u25814,": 4621, "\u2581anger": 4622, "\u2581arrive": 4623, "\u2581enhance": 4624, "\u2581Fla": 4625, "\u2581du": 4626, "\u2581Studies": 4627, "\u25812012,": 4628, "\u2581programming": 4629, "\u2581profile": 4630, "ef": 4631, "\u2581survived": 4632, "\u2581bonus": 4633, "box": 4634, "\u2581Battle": 4635, "\u2581Pakistani": 4636, "\u2581smart": 4637, "\u258164": 4638, "ace": 4639, "pin": 4640, "78": 4641, "\u2581fundamental": 4642, "\u25812000,": 4643, "\u2581History": 4644, "\u2581employed": 4645, "\u2581reforms": 4646, "\u2581peak": 4647, "\u2581Global": 4648, "\u2581constant": 4649, "\u2581euros": 4650, "\u2581jumped": 4651, "new": 4652, "\u2581CEO": 4653, "\u2581dozens": 4654, "\u25812004,": 4655, "2%": 4656, "\u258141": 4657, "\u2581unemployment": 4658, "non": 4659, "\u2581Awards": 4660, "\u2581Control": 4661, "\u2581atmosphere": 4662, "83": 4663, "\u2581websites": 4664, "\u2581seized": 4665, "\u2581answers": 4666, "ets": 4667, "\u2581accurate": 4668, "\u2581hasn": 4669, "\u2581cited": 4670, "\u2581Allen": 4671, "ious": 4672, "\u2581Ti": 4673, "\u2581shock": 4674, "88": 4675, "\u2581Local": 4676, "\u2581contribute": 4677, "\u2581Morgan": 4678, "\u2581Report": 4679, "lot": 4680, "\u2581newspapers": 4681, "\u2581equivalent": 4682, "Me": 4683, "**": 4684, "\u2581moderate": 4685, "range": 4686, "\u2581gathering": 4687, "\u2581clothing": 4688, "\u2581visual": 4689, "\u2581handling": 4690, "\u2581plain": 4691, "\u258143": 4692, "len": 4693, "\u2581initiative": 4694, "\u2581founder": 4695, "\u2581tested": 4696, "TE": 4697, "\u25811986": 4698, "quarter": 4699, "\u2581fallen": 4700, "\u2581searching": 4701, "\u2581silence": 4702, "cus": 4703, "\u2581Camp": 4704, "\u2581missile": 4705, "\u2581Dow": 4706, "bin": 4707, "\u2581Sar": 4708, "\u2581bills": 4709, "\u2581improving": 4710, "\u2581engines": 4711, "\u25811987": 4712, "92": 4713, "\u2581Ph": 4714, "\u2581Jason": 4715, "\u2581Five": 4716, "\u2581Chen": 4717, "\u2581Earlier": 4718, "\u2581tall": 4719, "\u2581blamed": 4720, "\u2581Daily": 4721, "week": 4722, "72": 4723, "\u2581collapse": 4724, "\u2581statistics": 4725, "\u2581Polish": 4726, "\u2581somewhere": 4727, "\u2581protein": 4728, "68": 4729, "ag": 4730, "dan": 4731, "\u2581wing": 4732, "51": 4733, "\u2581cycle": 4734, "\u2581IT": 4735, "cro": 4736, "\u2581vital": 4737, "\u2581talent": 4738, "\u2581moments": 4739, "\u2581relative": 4740, "\u2581graduated": 4741, "\u2581subsequently": 4742, "\u2581origin": 4743, "\u2581Holy": 4744, "\u2581browser": 4745, "\u2581strategies": 4746, "\u2581pushing": 4747, "94": 4748, "\u2581bio": 4749, "\u2581End": 4750, "bel": 4751, "\u2581switch": 4752, "\u2581Ve": 4753, "mat": 4754, "\u2581preparing": 4755, "\u2581Oh": 4756, "\u2581forecast": 4757, "\u2581RSS": 4758, "than": 4759, "\u2581feels": 4760, "you": 4761, "\u2581passes": 4762, "\u2581SA": 4763, "\u2581therapy": 4764, "\u2581sensitive": 4765, "\u2581ranked": 4766, "af": 4767, "TA": 4768, "bon": 4769, "\u2581Hussein": 4770, "\u2581publicly": 4771, "\u2581pot": 4772, "\u2581acid": 4773, "\u2581gap": 4774, "\u2581confirm": 4775, "\u2581grass": 4776, "\u2581cat": 4777, "\u2581Blair": 4778, "\u2581roles": 4779, "\u2581coal": 4780, "\u2581Muslims": 4781, "\u2581promoted": 4782, "\u2581reasonable": 4783, "fish": 4784, "bound": 4785, "\u2581Federation": 4786, "\u2581colleagues": 4787, "\u2581categories": 4788, "nie": 4789, "\u2581implement": 4790, "\u2581scheme": 4791, "\u2581Fair": 4792, "\u2581backed": 4793, "\u2581Grant": 4794, "\u2581dating": 4795, "ins": 4796, "\u2581architecture": 4797, "\u2581Ham": 4798, "\u2581industries": 4799, "\u2581Shanghai": 4800, "\u2581fewer": 4801, "\u2581Che": 4802, "\u2581banned": 4803, "\u2581hosted": 4804, "pan": 4805, "\u2581encouraged": 4806, "ati": 4807, "\u2581examples": 4808, "\u2581wealth": 4809, "\u2581Val": 4810, "\u2581pitch": 4811, "\u2581description": 4812, "\u2581managing": 4813, "\u2581drinking": 4814, "\u2581column": 4815, "\u2581treaty": 4816, "\u2581gaze": 4817, "\u2581Antonio": 4818, "\u2581Las": 4819, "\u2581distributed": 4820, "\u2581answered": 4821, "\u2581tone": 4822, "\u2581Victoria": 4823, "\u2581topics": 4824, "\u2581restaurants": 4825, "\u2581institution": 4826, "mor": 4827, "\u2581blame": 4828, "\u2581Mor": 4829, "\u2581stick": 4830, "\u2581struggling": 4831, "\u2581abandoned": 4832, "ese": 4833, "\u2581agricultural": 4834, "\u2581update": 4835, "\u2581languages": 4836, "\u2581equity": 4837, "tter": 4838, "\u2581Harry": 4839, "\u2581outstanding": 4840, "\u2581interface": 4841, "\u2581Thanks": 4842, "\u2581BBC": 4843, "\u2581Ri": 4844, "\u2581updated": 4845, "\u2581tank": 4846, "bank": 4847, "\u2581introduction": 4848, "isation": 4849, "\u258146": 4850, "\u2581wins": 4851, "\u2581Mu": 4852, "\u2581villages": 4853, "bro": 4854, "\u2581breast": 4855, "vis": 4856, "\u2581politician": 4857, "\u2581referring": 4858, "OR": 4859, "\u2581estimates": 4860, "\u2581deadline": 4861, "\u2581exact": 4862, "\u2581fled": 4863, "\u2581efficient": 4864, "illa": 4865, "\u2581tape": 4866, "\u2581junior": 4867, "\u2581mistake": 4868, "\u2581hidden": 4869, "meter": 4870, "\u2581emerged": 4871, "\u2581briefly": 4872, "\u2581designs": 4873, "\u2581fairly": 4874, "\u2581deeply": 4875, "\u2581manufacturers": 4876, "century": 4877, "\u2581anymore": 4878, "\u2581Ukraine": 4879, "\u2581Mayor": 4880, "\u2581unlikely": 4881, "\u2581moral": 4882, "\u2581occupied": 4883, "bury": 4884, "\u2581resolve": 4885, "hy": 4886, "\u2581observed": 4887, "\u2581instructions": 4888, "84": 4889, "\u2581fighters": 4890, "\u2581peaceful": 4891, "\u2581GM": 4892, "\u2581chapter": 4893, "\u2581eligible": 4894, "are": 4895, "\u2581lights": 4896, "tur": 4897, "\u2581withdrawal": 4898, "\u2581presentation": 4899, "\u2581performing": 4900, "\u2581magic": 4901, "\u2581liked": 4902, "\u2581birthday": 4903, "Let": 4904, "\u2581string": 4905, "tech": 4906, "Now": 4907, "\u2581suffer": 4908, "ash": 4909, "\u2581reserve": 4910, "\u2581threats": 4911, "AA": 4912, "\u2581participated": 4913, "\u2581bound": 4914, "\u2581planet": 4915, "\u2581intense": 4916, "\u2581traded": 4917, "\u2581immigration": 4918, "\u2581Austria": 4919, "\u2581reducing": 4920, "\u25811984": 4921, "\u2581immigrants": 4922, "\u2581indicate": 4923, "\u2581Theatre": 4924, "ade": 4925, "\u2581principle": 4926, "\u2581cricket": 4927, "\u2581Ball": 4928, "\u2581solve": 4929, "made": 4930, "\u2581Empire": 4931, "\u2581hide": 4932, "SU": 4933, "Con": 4934, "tri": 4935, "\u2581witness": 4936, "62": 4937, "One": 4938, "\u2581veteran": 4939, "\u25812003,": 4940, "\u2581Nigeria": 4941, "\u2581secondary": 4942, "\u2581Sal": 4943, "\u2581Ron": 4944, "\u2581Next": 4945, "\u2581feelings": 4946, "od": 4947, "\u2581script": 4948, "\u2581kid": 4949, "\u2581understood": 4950, "\u2581providers": 4951, "\u2581crude": 4952, "\u2581Brazilian": 4953, "\u2581engineer": 4954, "\u2581Phil": 4955, "\u2581express": 4956, "\u2581stream": 4957, "\u2581Attorney": 4958, "\u2581explore": 4959, "mont": 4960, "\u2581upset": 4961, "\u2581trail": 4962, "\u2581Mer": 4963, "\u2581attract": 4964, "\u2581muscle": 4965, "\u2581$6": 4966, "\u2581grounds": 4967, "\u2581okay": 4968, "ica": 4969, "\u2581dates": 4970, "79": 4971, "\u2581pleased": 4972, "she": 4973, "\u25811930": 4974, "\u2581pleasure": 4975, "credit": 4976, "\u2581writes": 4977, "idae": 4978, "\u2581Perhaps": 4979, "\u2581regard": 4980, "\u2581households": 4981, "\u2581Min": 4982, "\u2581blind": 4983, "\u25812001,": 4984, "pal": 4985, "\u2581Finance": 4986, "\u2581domain": 4987, "\u2581parliamentary": 4988, "\u2581compensation": 4989, "\u2581steam": 4990, "\u2581Work": 4991, "\u2581Space": 4992, "\u2581Swedish": 4993, "\u2581rent": 4994, "\u2581auction": 4995, "\u2581GMT": 4996, "\u2581assembly": 4997, "\u2581Tan": 4998, "\u2581Square": 4999, "\u2581Rev": 5000, "\u2581dismissed": 5001, "\u25815,": 5002, "\u2581tries": 5003, "LE": 5004, "pic": 5005, "hn": 5006, "\u2581centuries": 5007, "\u2581Was": 5008, "\u2581pursue": 5009, "\u2581landing": 5010, "\u2581royal": 5011, "\u2581opponents": 5012, "\u2581coat": 5013, "\u2581Iowa": 5014, "\u2581cloud": 5015, "\u2581districts": 5016, "\u2581Manchester": 5017, "\u2581hotels": 5018, "\u2581defence": 5019, "\u2581tired": 5020, "93": 5021, "mark": 5022, "mu": 5023, "\u2581Jay": 5024, "including": 5025, "ff": 5026, "\u2581expenses": 5027, "\u2581merely": 5028, "\u2581solo": 5029, "\u2581Cook": 5030, "\u2581appointment": 5031, "\u2581Clark": 5032, "power": 5033, "\u2581circuit": 5034, "\u2581mode": 5035, "burg": 5036, "\u2581Trust": 5037, "\u2581Live": 5038, "\u2581Tar": 5039, "AL": 5040, "\u2581Bat": 5041, "\u2581Design": 5042, "gin": 5043, "\u2581oldest": 5044, "\u2581Shiite": 5045, "\u2581obviously": 5046, "\u2581flash": 5047, "\u2581careful": 5048, "\u2581theater": 5049, "\u2581suspects": 5050, "\u2581bankruptcy": 5051, "\u2581priority": 5052, "\u2581bathroom": 5053, "list": 5054, "ians": 5055, "\u2581plate": 5056, "Ra": 5057, "\u2581Mag": 5058, "\u2581Key": 5059, "\u2581Islam": 5060, "\u2581Alan": 5061, "\u2581restrictions": 5062, "\u2581Fe": 5063, "\u2581controversial": 5064, "\u2581Bro": 5065, "\u2581harm": 5066, "san": 5067, "\u2581grabbed": 5068, "ich": 5069, "\u2581bowl": 5070, "\u2581Standard": 5071, "dar": 5072, "ther": 5073, "ida": 5074, "\u2581Palm": 5075, "\u2581reportedly": 5076, "!\u201d": 5077, "sey": 5078, "\u25811967": 5079, "61": 5080, "\u2581occurs": 5081, "\u2581prosecutors": 5082, "\u2581harder": 5083, "\u2581destroy": 5084, "\u258152": 5085, "\u2581exposed": 5086, "\u2581Building": 5087, "\u2581technique": 5088, "\u2581Milan": 5089, "\u2581Vo": 5090, "tal": 5091, "\u2581virtually": 5092, "\u2581subsequent": 5093, "200": 5094, "\u2581alert": 5095, "\u2581yuan": 5096, "At": 5097, "\u2581Anderson": 5098, "\u258111,": 5099, "\u2581scores": 5100, "\u2581targeted": 5101, "\u2581Madrid": 5102, "ING": 5103, "\u2581exhibition": 5104, "iz": 5105, "\u2581consequences": 5106, "\u2581pack": 5107, "MA": 5108, "\u2581perspective": 5109, "\u2581managers": 5110, "6%": 5111, "\u2581Forest": 5112, "bal": 5113, "\u2581absence": 5114, "\u2581Democrat": 5115, "\u2581Fu": 5116, "\u2581Policy": 5117, "\u2581choices": 5118, "\u2581activists": 5119, "\u2581Night": 5120, "7%": 5121, "sion": 5122, "\u2581strip": 5123, "\u2581Data": 5124, "\u2581mile": 5125, "\u2581Max": 5126, "\u2581HIV": 5127, "\u2581trans": 5128, "\u2581routine": 5129, "page": 5130, "bs": 5131, "\u2581Lady": 5132, "\u2581Son": 5133, "\u2581widespread": 5134, "\u2581clock": 5135, "\u2581journalist": 5136, "\u2581displayed": 5137, "\u2581substantial": 5138, "far": 5139, "\u2581radical": 5140, "4%": 5141, "\u2581posts": 5142, "eb": 5143, "poli": 5144, "\u2581cream": 5145, "\u2581Price": 5146, "\u2581Silver": 5147, "pping": 5148, "\u2581tip": 5149, "\u2581beside": 5150, "\u2581Marine": 5151, "az": 5152, "\u2581Dean": 5153, "\u2581Without": 5154, "\u2581Bal": 5155, "\u2581investments": 5156, "ked": 5157, "\u2581roughly": 5158, "\u2581Railway": 5159, "\u2581franchise": 5160, "\u2581intellectual": 5161, "\u2581Cu": 5162, "\u2581gotten": 5163, "\u2581Manhattan": 5164, "\u2581everybody": 5165, "\u2581residential": 5166, "\u2581controls": 5167, "\u2581allegedly": 5168, "\u2581shirt": 5169, "\u2581exciting": 5170, "\u2581Mad": 5171, "ira": 5172, "dom": 5173, "\u2581lists": 5174, "Go": 5175, "DA": 5176, "\u2581pocket": 5177, "\u2581apparent": 5178, "\u2581Pen": 5179, "New": 5180, "\u2581crossed": 5181, "\u2581comedy": 5182, "\u2581discover": 5183, "81": 5184, "74": 5185, "\u2581judges": 5186, "BA": 5187, "\u2581remarks": 5188, "\u2581settle": 5189, "\u2581Sky": 5190, "\u2581occupation": 5191, "\u2581crazy": 5192, "\u2581fleet": 5193, "\u2581furniture": 5194, "nan": 5195, "view": 5196, "\u2581surrounded": 5197, "82": 5198, "\u2581fail": 5199, "\u2581def": 5200, "\u2581outcome": 5201, "\u2581proposals": 5202, "\u2581Has": 5203, "0%": 5204, "\u2581personally": 5205, "sized": 5206, "8%": 5207, "inch": 5208, "ala": 5209, "\u2581attending": 5210, "\u2581hire": 5211, "\u2581Scottish": 5212, "\u2581guidelines": 5213, "\u2581proof": 5214, "\u2581Disney": 5215, "\u2581nationwide": 5216, "\u2581Market": 5217, "\u2581Duke": 5218, "\u2581imposed": 5219, "\u2581failing": 5220, "\u2581supports": 5221, "\u2581visible": 5222, "\u2581tears": 5223, "yan": 5224, "\u2581yield": 5225, "\u2581beneath": 5226, "\u2581hitting": 5227, "\u2581tourists": 5228, "\u2581fix": 5229, "\u2581duties": 5230, "\u2581frequent": 5231, "\u2581appearances": 5232, "ched": 5233, "\u2581Oregon": 5234, "rat": 5235, "\u2581traveling": 5236, "gh": 5237, "cat": 5238, "\u2581stretch": 5239, "hal": 5240, "ME": 5241, "\u2581laughed": 5242, "\u25811985": 5243, "\u2581imp": 5244, "\u2581belief": 5245, "\u2581Deputy": 5246, "\u2581OF": 5247, "Bo": 5248, "\u2581Wisconsin": 5249, "\u2581shops": 5250, "\u2581symbol": 5251, "\u25811940": 5252, "\u2581amounts": 5253, "\u25811:": 5254, "\u2581blocks": 5255, "\u2581convention": 5256, "\u2581lie": 5257, "CE": 5258, "\u2581Maryland": 5259, "\u2581Place": 5260, "\u2581investigators": 5261, "\u2581Cabinet": 5262, "about": 5263, "\u2581Bible": 5264, "\u2581Treasury": 5265, "\u2581Ross": 5266, "ches": 5267, "\u2581merger": 5268, "\u2581Pu": 5269, "\u2581earthquake": 5270, "\u2581sentenced": 5271, "\u2581input": 5272, "\u2581provincial": 5273, "\u2581discount": 5274, "\u2581Through": 5275, "\u2581designated": 5276, "\u2581sessions": 5277, "\u2581structures": 5278, "\u2581Norway": 5279, "\u2581dramatic": 5280, "\u2581Using": 5281, "ction": 5282, "\u2581accompanied": 5283, "\u2581Euro": 5284, "\u2581Golden": 5285, "\u2581Kan": 5286, "\u2581tennis": 5287, "\u2581Six": 5288, "ric": 5289, "ib": 5290, "\u2581Guard": 5291, "elle": 5292, "\u2581Capital": 5293, "ire": 5294, "\u2581Rio": 5295, "\u2581performances": 5296, "\u2581sons": 5297, "\u2581lawsuit": 5298, "\u2581hospitals": 5299, "\u2581Securities": 5300, "\u2581Wa": 5301, "cra": 5302, "\u2581financing": 5303, "\u2581Ab": 5304, "\u2581Down": 5305, "\u2581Did": 5306, "\u2581converted": 5307, "\u2581speaker": 5308, "\u2581winners": 5309, "\u2581videos": 5310, "\u2581temple": 5311, "\u2581bedroom": 5312, "\u2581contribution": 5313, "\u2581cook": 5314, "\u2581estimate": 5315, "bat": 5316, "\u2581consideration": 5317, "\u2581tower": 5318, "\u2581ownership": 5319, "\u2581attractive": 5320, "\u2581mutual": 5321, "\u2581hang": 5322, "\u2581municipality": 5323, "\u2581generate": 5324, "\u2581Wal": 5325, "ux": 5326, "\u2581default": 5327, "\u2581athletes": 5328, "\u2581Senior": 5329, "\u2581sufficient": 5330, "\u2581witnesses": 5331, "\u2581crossing": 5332, "\u2581printed": 5333, "ban": 5334, "\u2581Carter": 5335, "\u2581helpful": 5336, "\u2581Ram": 5337, "\u2581steady": 5338, "scale": 5339, "\u2581mountains": 5340, "\u2581Ann": 5341, "4,": 5342, "\u2581gear": 5343, "\u2581Sometimes": 5344, "\u2581solar": 5345, "\u2581Missouri": 5346, "election": 5347, "\u2581Sub": 5348, "\u2581Cape": 5349, "\u2581wheel": 5350, "\u2581rolled": 5351, "\u2581designer": 5352, "\u2581pure": 5353, "mate": 5354, "\u258110,000": 5355, "til": 5356, "\u2581burning": 5357, "world": 5358, "9%": 5359, "\u2581patterns": 5360, "\u2581laugh": 5361, "\u2581eighth": 5362, "\u2581illness": 5363, "\u2581consistent": 5364, "bri": 5365, "\u2581shoot": 5366, "\u2581journal": 5367, "\u2581Bishop": 5368, "\u2581Kenya": 5369, "Pro": 5370, "\u2581Juan": 5371, "una": 5372, "\u2581findings": 5373, "\u2581load": 5374, "\u2581potentially": 5375, "\u2581gross": 5376, "300": 5377, "\u2581Right": 5378, "\u2581Indiana": 5379, "\u2581scenes": 5380, "\u2581finishing": 5381, "ters": 5382, "=": 5383, "\u2581Sharon": 5384, "\u2581preparation": 5385, "\u2581Whether": 5386, "\u2581Cat": 5387, "\u2581stuck": 5388, "\u2581democratic": 5389, "\u2581intervention": 5390, "\u2581Class": 5391, "\u2581relatives": 5392, "73": 5393, "\u2581framework": 5394, "\u2581mm": 5395, "ew": 5396, "\u2581install": 5397, "\u2581scandal": 5398, "\u2581Country": 5399, "\u2581weapon": 5400, "\u2581reliable": 5401, "\u2581succeed": 5402, "\u2581studying": 5403, "\u2581Serbs": 5404, "\u2581Bel": 5405, "\u2581Therefore": 5406, "\u2581collaboration": 5407, "\u2581celebrate": 5408, "77": 5409, "ching": 5410, "\u2581virtual": 5411, "\u2581Captain": 5412, "\u2581attitude": 5413, "\u2581suitable": 5414, "\u2581flew": 5415, "Are": 5416, "hard": 5417, "\u2581dealers": 5418, "\u2581Islands": 5419, "\u2581Ash": 5420, "\u2581mood": 5421, "\u2581appreciate": 5422, "\u2581Peace": 5423, "\u2581judgment": 5424, "ata": 5425, "\u258151": 5426, "\u2581consumption": 5427, "\u2581generated": 5428, "\u2581lady": 5429, "\u2581loose": 5430, "wide": 5431, "\u2581Dave": 5432, "nation": 5433, "\u2581liquid": 5434, "\u2581detained": 5435, "gal": 5436, "\u2581authors": 5437, "\u2581tail": 5438, "\u2581falls": 5439, "\u2581visits": 5440, "ack": 5441, "\u25812014,": 5442, "\u2581spin": 5443, "\u2581stared": 5444, "\u2581Auto": 5445, "\u25811982": 5446, "\u2581tourism": 5447, "\u2581execution": 5448, "oo": 5449, "\u2581involves": 5450, "\u2581fault": 5451, "\u25811920": 5452, "\u2581legislative": 5453, "\u2581awareness": 5454, "\u2581horses": 5455, "\u2581Mur": 5456, "ole": 5457, "\u2581recession": 5458, "\u2581provision": 5459, "\u2581ca": 5460, "\u2581Harvard": 5461, "\u2581Austin": 5462, "\u2581recover": 5463, "IA": 5464, "\u2581necessarily": 5465, "\u2581shoulders": 5466, "\u2581Corps": 5467, "str": 5468, "\u2581popularity": 5469, "\u2581constitutional": 5470, "\u2581impressive": 5471, "\u2581promoting": 5472, "who": 5473, "\u2581concerning": 5474, "\u2581Serbia": 5475, "\u2581hardware": 5476, "ct": 5477, "ston": 5478, "\u2581connect": 5479, "\u2581Indonesian": 5480, "\u2581ads": 5481, "bur": 5482, "\u2581Tor": 5483, "avi": 5484, "\u2581guards": 5485, "ign": 5486, "\u2581Winter": 5487, "\u2581burned": 5488, "\u2581Pri": 5489, "\u2581anonymity": 5490, "pay": 5491, "\u2581departure": 5492, "\u2581Convention": 5493, "ene": 5494, "IT": 5495, "\u2581luxury": 5496, "71": 5497, "\u2581Anti": 5498, "\u2581Gordon": 5499, "bert": 5500, "\u2581Register": 5501, "\u2581sections": 5502, "\u2581convinced": 5503, "\u2581describes": 5504, "\u2581investigate": 5505, "\u2581kiss": 5506, "cap": 5507, "\u2581restore": 5508, "TC": 5509, "iv": 5510, "\u2581Lanka": 5511, "\u25811979": 5512, "\u2581integrated": 5513, "\u2581hip": 5514, "\u25811983": 5515, "\u2581Arabia": 5516, "\u2581abortion": 5517, "\u2581valley": 5518, "\u2581inner": 5519, "\u2581regarded": 5520, "\u2581pulling": 5521, "\u2581objective": 5522, "\u2581app": 5523, "\u2581Credit": 5524, "\u2581resident": 5525, "\u2581recovered": 5526, "\u2581predicted": 5527, "\u2581component": 5528, "\u2581Bad": 5529, "cast": 5530, "\u25812013,": 5531, "\u2581Lin": 5532, "\u25811969": 5533, "\u2581rank": 5534, "\u2581stressed": 5535, "\u2581universities": 5536, "\u2581gifts": 5537, "west": 5538, "\u2581producers": 5539, "\u2581golden": 5540, "\u2581Tennessee": 5541, "\u2581b": 5542, "\u2581circle": 5543, "\u2581assume": 5544, "\u2581aggressive": 5545, "los": 5546, "\u2581wooden": 5547, "\u2581silent": 5548, "\u2581Find": 5549, "real": 5550, "\u2581greatly": 5551, "General": 5552, "\u2581waters": 5553, "iya": 5554, "\u2581genetic": 5555, "\u2581NBA": 5556, "\u2581worker": 5557, "\u2581churches": 5558, "\u2581Having": 5559, "lie": 5560, "\u2581agreements": 5561, "\u2581Moore": 5562, "\u2581passage": 5563, "\u2581excited": 5564, "\u2581rarely": 5565, "\u2581AIDS": 5566, "\u2581luck": 5567, "\u2581argue": 5568, "\u2581bottle": 5569, "\u2581forever": 5570, "\u2581halt": 5571, "\u2581annually": 5572, "\u2581manufacturer": 5573, "\u2581definition": 5574, "\u2581rough": 5575, "dra": 5576, "\u2581reserves": 5577, "\u2581upcoming": 5578, "\u2581Win": 5579, "\u2581Anthony": 5580, "\u2581DNA": 5581, "ob": 5582, "\u2581Orleans": 5583, "var": 5584, "\u2581logo": 5585, "\u25812015,": 5586, "und": 5587, "mb": 5588, "care": 5589, "\u2581glad": 5590, "\u2581coup": 5591, "\u2581remembered": 5592, "\u2581compound": 5593, "\u2581landed": 5594, "\u2581ordinary": 5595, "\u2581Facebook": 5596, "\u2581recalled": 5597, "\u2581Rick": 5598, "\u2581situations": 5599, "ec": 5600, "\u25811971": 5601, "\u2581reporter": 5602, "\u2581Ontario": 5603, "\u2581shake": 5604, "\u2581subjects": 5605, "GA": 5606, "\u2581viewed": 5607, "vent": 5608, "\u2581Systems": 5609, "\u2581opera": 5610, "\u2581Arthur": 5611, "\u2581Philip": 5612, "unt": 5613, "\u2581eliminate": 5614, "\u2581Highway": 5615, "\u2581Commissioner": 5616, "\u2581Gary": 5617, "eng": 5618, "\u25812002,": 5619, "nch": 5620, "\u2581Father": 5621, "\u2581diseases": 5622, "\u2581presidency": 5623, "\u2581Thank": 5624, "dal": 5625, "lee": 5626, "\u2581Powell": 5627, "aka": 5628, "\u2581Had": 5629, "\u2581Spring": 5630, "\u2581nervous": 5631, "\u2581repeat": 5632, "\u2581Tro": 5633, "\u2581Matthew": 5634, "ath": 5635, "vegas": 5636, "\u2581$7": 5637, "\u2581pressed": 5638, "burn": 5639, "\u2581errors": 5640, "\u2581philosophy": 5641, "\u2581comparison": 5642, "\u2581boss": 5643, "\u2581Search": 5644, "\u2581infection": 5645, "\u2581uniform": 5646, "\u2581Channel": 5647, "\u2581sudden": 5648, "\u2581competed": 5649, "\u2581welfare": 5650, "\u2581waited": 5651, "\u2581Ste": 5652, "fla": 5653, "\u2581mining": 5654, "\u2581benchmark": 5655, "mile": 5656, "\u2581constantly": 5657, "\u2581installation": 5658, "\u2581directory": 5659, "\u2581Harris": 5660, "\u2581notable": 5661, "\u2581Prize": 5662, "\u2581Belgium": 5663, "\u2581marine": 5664, "\u2581Way": 5665, "\u2581Sudan": 5666, "\u2581defending": 5667, "\u2581finds": 5668, "\u2581Rice": 5669, "\u2581Oklahoma": 5670, "get": 5671, "\u2581rocket": 5672, "\u2581Walter": 5673, "\u2581testimony": 5674, "\u2581desert": 5675, "\u2581tourist": 5676, "\u2581Wang": 5677, "\u2581demanding": 5678, "IN": 5679, "\u2581asks": 5680, "\u2581passion": 5681, "\u2581Cleveland": 5682, "\u2581lucky": 5683, "\u2581preferred": 5684, "\u2581ABC": 5685, "\u2581mainland": 5686, "\u2581nomination": 5687, "\u2581publishing": 5688, "\u2581flood": 5689, "\u2581agriculture": 5690, "\u2581listening": 5691, "\u2581breakfast": 5692, "party": 5693, "\u2581sad": 5694, "\u2581females": 5695, "\u2581qualify": 5696, "\u2581Kelly": 5697, "\u2581planes": 5698, "\u2581conclusion": 5699, "\u2581enormous": 5700, "\u2581accounting": 5701, "\u2581engage": 5702, "\u2581sole": 5703, "\u25818,": 5704, "\u2581singles": 5705, "fra": 5706, "\u2581Front": 5707, "\u2581Christopher": 5708, "\u2581Garden": 5709, "ser": 5710, "market": 5711, "\u2581exception": 5712, "AS": 5713, "\u2581emerging": 5714, "\u2581leather": 5715, "\u2581Band": 5716, "\u2581bronze": 5717, "Qaida": 5718, "\u2581requests": 5719, "\u2581smell": 5720, "\u2581Greg": 5721, "\u2581slip": 5722, "gg": 5723, "\u2581hardly": 5724, "\u2581Care": 5725, "\u2581bone": 5726, "\u2581revolution": 5727, "\u2581Section": 5728, "ova": 5729, "ei": 5730, "mel": 5731, "\u2581resigned": 5732, "rid": 5733, "hon": 5734, "\u2581tongue": 5735, "\u2581Bor": 5736, "\u2581efficiency": 5737, "\u2581Tre": 5738, "\u2581assumed": 5739, "rie": 5740, "\u2581succeeded": 5741, "\u2581strengthen": 5742, "\u2581singing": 5743, "\u2581perfectly": 5744, "\u2581Besides": 5745, "\u2581chicken": 5746, "\u2581depends": 5747, "\u2581Denver": 5748, "\u2581colour": 5749, "\u2581Zimbabwe": 5750, "\u2581beer": 5751, "\u2581stages": 5752, "gel": 5753, "\u2581destination": 5754, "\u2581Due": 5755, "\u2581Sarah": 5756, "\u2581Gov": 5757, "\u2581emphasis": 5758, "\u2581trains": 5759, "\u2581diverse": 5760, "MC": 5761, "\u2581northwest": 5762, "table": 5763, "\u2581camps": 5764, "\u2581collective": 5765, "\u2581rush": 5766, "\u2581Kerry": 5767, "\u2581neighboring": 5768, "\u2581Pra": 5769, "\u2581Woods": 5770, "RO": 5771, "\u2581streak": 5772, "\u2581premier": 5773, "\u2581organisation": 5774, "\u2581exclusive": 5775, "\u2581dad": 5776, "\u2581considerable": 5777, "\u2581MP": 5778, "\u2581prescription": 5779, "$": 5780, "\u2581accessible": 5781, "\u2581mini": 5782, "\u2581depth": 5783, "\u2581occasion": 5784, "\u2581deck": 5785, "\u2581posting": 5786, "\u2581funny": 5787, "\u2581keeps": 5788, "\u2581locked": 5789, "\u2581120": 5790, "\u2581quit": 5791, "\u2581Alliance": 5792, "\u25817,": 5793, "mic": 5794, "\u2581transmission": 5795, "ES": 5796, "\u2581situated": 5797, "profit": 5798, "\u2581intention": 5799, "\u2581Anna": 5800, "\u2581parish": 5801, "\u2581Je": 5802, "\u2581bags": 5803, "\u2581carrier": 5804, "\u2581Farm": 5805, "\u2581ratio": 5806, "\u2581zero": 5807, "91": 5808, "ali": 5809, "\u2581Cap": 5810, "\u2581wore": 5811, "\u2581invest": 5812, "\u2581Manager": 5813, "\u2581Wu": 5814, "\u2581para": 5815, "\u2581Carlos": 5816, "Just": 5817, "\u2581slipped": 5818, "\u2581Third": 5819, "rum": 5820, "Pa": 5821, "\u2581Play": 5822, "\u2581vary": 5823, "rant": 5824, "\u2581swing": 5825, "\u2581communist": 5826, "\u2581Code": 5827, "On": 5828, "\u2581Regional": 5829, "\u2581hosting": 5830, "club": 5831, "\u2581photographs": 5832, "\u2581terrorists": 5833, "\u2581protesters": 5834, "uc": 5835, "\u2581electrical": 5836, "ado": 5837, "\u2581channels": 5838, "ult": 5839, "RA": 5840, "\u2581aspect": 5841, "\u2581Hal": 5842, "\u2581maker": 5843, "\u2581Set": 5844, "\u2581praised": 5845, "\u2581racial": 5846, "\u2581=": 5847, "pu": 5848, "\u2581Main": 5849, "\u2581evaluation": 5850, "\u2581Roger": 5851, "\u2581islands": 5852, "\u2581badly": 5853, "\u2581bi": 5854, "\u2581Hot": 5855, "cul": 5856, "\u2581Story": 5857, "\u2581portfolio": 5858, "\u2581shouldn": 5859, "\u2581facts": 5860, "tier": 5861, "zer": 5862, "chan": 5863, "ika": 5864, "\u2581Dick": 5865, "SA": 5866, "\u2581listing": 5867, "\u2581mirror": 5868, "\u2581nominated": 5869, "\u2581lying": 5870, "\u2581holes": 5871, "\u2581ballot": 5872, "\u2581complaints": 5873, "\u2581expertise": 5874, "\u2581Former": 5875, "LA": 5876, "maker": 5877, "\u2581helicopter": 5878, "\u2581Croatia": 5879, "ox": 5880, "\u2581organic": 5881, "\u2581Colombia": 5882, "\u2581expects": 5883, "\u2581bars": 5884, "\u2581proven": 5885, "\u2581password": 5886, "\u258154": 5887, "\u2581Commerce": 5888, "\u2581copyright": 5889, "\u2581outdoor": 5890, "\u2581rice": 5891, "\u2581calendar": 5892, "\u2581Prior": 5893, "rick": 5894, "\u2581swimming": 5895, "PA": 5896, "\u2581compromise": 5897, "\u2581humanitarian": 5898, "\u2581fate": 5899, "\u2581Card": 5900, "\u2581innocent": 5901, "\u2581Pentagon": 5902, "\u2581dust": 5903, "\u2581exists": 5904, "\u2581interviews": 5905, "\u2581rental": 5906, "\u2581Cuban": 5907, "ual": 5908, "\u2581staying": 5909, "ral": 5910, "\u2581actress": 5911, "\u2581ski": 5912, "\u2581spoken": 5913, "bb": 5914, "DS": 5915, "Man": 5916, "\u2581deadly": 5917, "\u2581Strip": 5918, "\u2581twin": 5919, "\u2581translation": 5920, "\u2581Memorial": 5921, "\u2581Vegas": 5922, "\u2581examination": 5923, "aff": 5924, "\u2581corn": 5925, "\u2581median": 5926, "\u25811975": 5927, "\u2581movements": 5928, "\u2581Hand": 5929, "\u25811964": 5930, "\u2581sheet": 5931, "\u2581republic": 5932, "\u2581overcome": 5933, "\u2581maintaining": 5934, "\u2581burst": 5935, "ai": 5936, "\u2581everywhere": 5937, "\u2581funeral": 5938, "\u2581Fi": 5939, "\u2581requirement": 5940, "Ba": 5941, "\u2581Gra": 5942, "\u2581Yo": 5943, "kan": 5944, "\u2581parallel": 5945, "\u2581equipped": 5946, "\u2581childhood": 5947, "\u2581Portugal": 5948, "\u2581terminal": 5949, "\u2581cooking": 5950, "\u2581cease": 5951, "\u2581congressional": 5952, "\u2581mess": 5953, "\u2581dominated": 5954, "\u2581recommendations": 5955, "\u2581forth": 5956, "\u2581Sta": 5957, "dic": 5958, "\u2581Tel": 5959, "half": 5960, "\u2581somehow": 5961, "\u2581riding": 5962, "\u2581Kat": 5963, "\u2581TO": 5964, "\u2581pink": 5965, "\u2581AT": 5966, "\u2581Sp": 5967, "\u2581trim": 5968, "qu": 5969, "\u2581reception": 5970, "\u2581meets": 5971, "\u2581touched": 5972, "\u2581genus": 5973, "\u2581del": 5974, "\u2581kingdom": 5975, "struct": 5976, "\u2581lap": 5977, "\u2581Ser": 5978, "tle": 5979, "dale": 5980, "\u2581acquisition": 5981, "\u2581foods": 5982, "\u2581deployed": 5983, "\u2581raid": 5984, "\u2581addressed": 5985, "\u2581offense": 5986, "ened": 5987, "\u2581root": 5988, "\u2581brick": 5989, "\u2581letting": 5990, "\u2581Es": 5991, "\u2581partly": 5992, "sco": 5993, "fri": 5994, "\u2581Liberal": 5995, "\u2581claiming": 5996, "\u2581cleared": 5997, "\u2581hill": 5998, "zy": 5999, "\u2581Guide": 6000, "\u258153": 6001, "\u2581Region": 6002, "\u2581employers": 6003, "\u2581complicated": 6004, "\u2581Wil": 6005, "\u2581Susan": 6006, "\u2581lit": 6007, "\u2581Caribbean": 6008, "\u2581blocked": 6009, "east": 6010, "\u2581Travel": 6011, "HA": 6012, "\u2581impression": 6013, "\u2581meal": 6014, "\u2581log": 6015, "\u2581strikes": 6016, "stra": 6017, "\u2581Unlike": 6018, "\u2581jet": 6019, "\u2581hanging": 6020, "\u2581packed": 6021, "\u2581theatre": 6022, "\u2581Sel": 6023, "\u2581admit": 6024, "\u2581provisions": 6025, "chu": 6026, "hold": 6027, "lia": 6028, "\u2581Born": 6029, "ID": 6030, "ER": 6031, "\u2581Phoenix": 6032, "\u2581Kentucky": 6033, "IP": 6034, "\u2581climb": 6035, "\u2581Dun": 6036, "\u2581loud": 6037, "sec": 6038, "\u2581involve": 6039, "\u2581deposit": 6040, "\u2581cheese": 6041, "\u2581Myanmar": 6042, "\u25812016,": 6043, "\u2581possession": 6044, "500": 6045, "\u2581counsel": 6046, "\u258156": 6047, "\u2581citing": 6048, "kh": 6049, "\u2581Route": 6050, "\u2581superior": 6051, "\u2581outbreak": 6052, "\u2581Lincoln": 6053, "\u2581Trans": 6054, "\u2581instant": 6055, "\u2581aged": 6056, "\u2581coastal": 6057, "\u2581conventional": 6058, "\u2581memories": 6059, "\u2581ninth": 6060, "\u2581Nelson": 6061, "\u2581pit": 6062, "\u2581Douglas": 6063, "\u2581dressed": 6064, "\u2581Command": 6065, "sim": 6066, "\u2581Motor": 6067, "\u2581capabilities": 6068, "any": 6069, "\u2581sword": 6070, "\u2581opponent": 6071, "\u2581discovery": 6072, "\u2581automatic": 6073, "\u2581prospect": 6074, "\u2581NBC": 6075, "\u2581criteria": 6076, "\u2581eggs": 6077, "\u2581burden": 6078, "\u2581barrel": 6079, "\u2581implemented": 6080, "\u2581joy": 6081, "take": 6082, "\u2581Angel": 6083, "OS": 6084, "\u2581buyers": 6085, "\u2581Stewart": 6086, "\u25811965": 6087, "\u2581ceiling": 6088, "\u2581Pet": 6089, "\u2581orange": 6090, "\u2581painted": 6091, "\u2581bilateral": 6092, "\u2581emissions": 6093, "\u2581associate": 6094, "\u2581approached": 6095, "\u2581thrown": 6096, "\u2581gray": 6097, "\u2581Ger": 6098, "\u2581predict": 6099, "\u2581Albert": 6100, "\u25811972": 6101, "\u2581embassy": 6102, "\u2581pm": 6103, "person": 6104, "\u2581exam": 6105, "\u2581volunteers": 6106, "\u2581custody": 6107, "People": 6108, "ima": 6109, "\u2581Until": 6110, "\u2581bread": 6111, "\u2581backing": 6112, "\u2581Para": 6113, "000": 6114, "\u2581preserve": 6115, "These": 6116, "\u2581Tra": 6117, "aki": 6118, "\u2581folks": 6119, "\u25819,": 6120, "aire": 6121, "eo": 6122, "\u2581invitation": 6123, "\u2581Connecticut": 6124, "\u2581valid": 6125, "\u2581Hard": 6126, "from": 6127, "ans": 6128, "\u2581difficulties": 6129, "\u2581Computer": 6130, "\u2581prompted": 6131, "\u2581boats": 6132, "\u2581militant": 6133, "\u2581volunteer": 6134, "\u2581trucks": 6135, "\u2581permit": 6136, "\u2581Abbas": 6137, "\u2581Hamilton": 6138, "\u2581loyal": 6139, "\u2581tension": 6140, "\u2581Walker": 6141, "sis": 6142, "\u2581Jane": 6143, "\u2581saving": 6144, "\u25811974": 6145, "\u2581biological": 6146, "\u2581champions": 6147, "\u2581dynamic": 6148, "\u2581neighbors": 6149, "\u2581Engineering": 6150, "\u2581occasionally": 6151, "\u2581Anne": 6152, "\u2581Communications": 6153, "hood": 6154, "\u2581Constitution": 6155, "\u2581Hart": 6156, "\u2581difficulty": 6157, "\u2581mill": 6158, "ele": 6159, "insurance": 6160, "\u2581episodes": 6161, "\u2581formally": 6162, "\u2581comic": 6163, "\u2581pregnant": 6164, "\u2581northeast": 6165, "ora": 6166, "dollar": 6167, "Who": 6168, "\u2581Jon": 6169, "tti": 6170, "\u2581Tech": 6171, "\u2581classified": 6172, "\u2581sequence": 6173, "bridge": 6174, "\u2581Heart": 6175, "\u2581margin": 6176, "\u2581stored": 6177, "\u25811976": 6178, "\u2581stupid": 6179, "\u2581winds": 6180, "\u2581successor": 6181, "\u2581wrapped": 6182, "rated": 6183, "\u2581Andy": 6184, "\u2581depression": 6185, "\u2581branches": 6186, "nit": 6187, "\u2581regardless": 6188, "\u2581Tamil": 6189, "\u2581convert": 6190, "\u2581struggled": 6191, "\u2581lessons": 6192, "\u2581completion": 6193, "\u2581Alabama": 6194, "\u2581reader": 6195, "\u2581Village": 6196, "\u2581shell": 6197, "pm": 6198, "\u2581cargo": 6199, "align": 6200, "\u2581participating": 6201, "\u2581Bangladesh": 6202, "\u2581cruise": 6203, "\u2581tackle": 6204, "ular": 6205, "\u2581$10": 6206, "\u2581hosts": 6207, "\u25811966": 6208, "\u2581lifestyle": 6209, "\u2581prayer": 6210, "\u2581layer": 6211, "\u2581authorized": 6212, "\u2581Medicine": 6213, "ste": 6214, "\u2581challenging": 6215, "\u2581800": 6216, "\u2581quarterback": 6217, "\u2581acres": 6218, "\u2581random": 6219, "\u2581Military": 6220, "\u2581ranging": 6221, "\u2581personality": 6222, "\u2581array": 6223, "\u2581climbed": 6224, "iti": 6225, "type": 6226, "\u2581Airlines": 6227, "\u2581reverse": 6228, "FA": 6229, "\u2581competing": 6230, "\u2581crack": 6231, "lum": 6232, "\u2581tropical": 6233, "log": 6234, "ington": 6235, "ators": 6236, "ily": 6237, "\u2581traveled": 6238, "\u2581disappeared": 6239, "ami": 6240, "\u2581integration": 6241, "\u2581questioned": 6242, "\u2581tasks": 6243, "\u2581investigating": 6244, "\u2581operates": 6245, "\u2581directors": 6246, "\u2581gather": 6247, "\u2581Unfortunately": 6248, "\u2581Thompson": 6249, "tern": 6250, "\u2581securities": 6251, "\u2581resignation": 6252, "\u2581intent": 6253, "400": 6254, "\u2581Boy": 6255, "\u2581shower": 6256, "band": 6257, "\u2581belt": 6258, "\u2581suspension": 6259, "\u2581Putin": 6260, "sal": 6261, "\u2581innovative": 6262, "\u2581roots": 6263, "\u2581Champions": 6264, "\u2581Page": 6265, "\u2581Ahmed": 6266, "\u2581explanation": 6267, "\u2581Mississippi": 6268, "xi": 6269, "\u2581Lebanese": 6270, "season": 6271, "\u2581Oil": 6272, "\u2581specialist": 6273, "\u2581dreams": 6274, "\u2581smoking": 6275, "CP": 6276, "\u2581Baltimore": 6277, "\u2581regulation": 6278, "\u2581referendum": 6279, "\u2581Sh": 6280, "RC": 6281, "\u2581100%": 6282, "\u2581trillion": 6283, "\u2581Early": 6284, "AC": 6285, "\u2581Pope": 6286, "even": 6287, "ON": 6288, "\u2581controversy": 6289, "\u2581titled": 6290, "\u2581decrease": 6291, "\u2581lifetime": 6292, "\u2581ignored": 6293, "\u2581complaint": 6294, "pri": 6295, "most": 6296, "\u2581pledged": 6297, "\u2581complained": 6298, "\u2581Seven": 6299, "\u2581wireless": 6300, "\u2581Yugoslavia": 6301, "\u2581boxes": 6302, "\u2581sharply": 6303, "\u2581Sur": 6304, "\u2581Mohammed": 6305, "\u2581Melbourne": 6306, "\u2581petition": 6307, "\u2581moon": 6308, "\u25812,000": 6309, "lis": 6310, "\u2581honest": 6311, "\u2581casualties": 6312, "\u2581documentary": 6313, "\u2581rivals": 6314, "\u2581Cole": 6315, "\u2581removal": 6316, "RI": 6317, "ening": 6318, "zu": 6319, "\u2581fence": 6320, "\u2581mad": 6321, "\u2581raw": 6322, "\u2581guidance": 6323, "\u2581specified": 6324, "ase": 6325, "\u25811978": 6326, "\u2581reveal": 6327, "\u25811999,": 6328, "\u2581Sciences": 6329, "\u2581Louisiana": 6330, "\u2581Pittsburgh": 6331, "\u2581mixture": 6332, "MP": 6333, "\u2581Bruce": 6334, "\u2581Temple": 6335, "ography": 6336, "\u2581Oxford": 6337, "\u2581tobacco": 6338, "master": 6339, "\u258172": 6340, "\u2581Gre": 6341, "\u2581ratings": 6342, "\u2581density": 6343, "city": 6344, "SM": 6345, "\u2581qualifying": 6346, "\u2581Non": 6347, "\u2581priest": 6348, "\u2581equally": 6349, "\u2581Small": 6350, "\u2581affordable": 6351, "yr": 6352, "\u2581mo": 6353, "\u2581Alaska": 6354, "\u2581depend": 6355, "km": 6356, "\u2581Sand": 6357, "\u2581tear": 6358, "\u2581aboard": 6359, "stein": 6360, "\u2581cleaning": 6361, "wo": 6362, "\u25812017,": 6363, "\u2581meanwhile": 6364, "\u2581Cho": 6365, "\u2581lab": 6366, "\u2581hockey": 6367, "\u2581chat": 6368, "\u2581Den": 6369, "\u2581Cur": 6370, "\u2581improvements": 6371, "\u2581rounds": 6372, "\u2581southwest": 6373, "\u2581forcing": 6374, "\u25811981": 6375, "\u2581shareholders": 6376, "\u2581phones": 6377, "\u2581wet": 6378, "\u2581prosecutor": 6379, "tru": 6380, "ug": 6381, "\u2581electoral": 6382, "\u2581Castle": 6383, "\u2581Denmark": 6384, "\u2581conversion": 6385, "\u2581Keep": 6386, "nia": 6387, "\u2581salary": 6388, "\u2581striker": 6389, "\u2581consent": 6390, "nce": 6391, "\u2581gender": 6392, "\u2581Mother": 6393, "\u2581Sim": 6394, "\u2581pride": 6395, "\u2581Rangers": 6396, "\u2581250": 6397, "\u2581HP": 6398, "ert": 6399, "\u2581attracted": 6400, "\u2581ranks": 6401, "\u2581palace": 6402, "\u2581manual": 6403, "\u2581Norwegian": 6404, "gra": 6405, "wer": 6406, "\u2581powder": 6407, "\u2581whispered": 6408, "\u2581males": 6409, "\u2581Labour": 6410, "ving": 6411, "acy": 6412, "\u2581castle": 6413, "\u2581cameras": 6414, "AM": 6415, "\u2581Express": 6416, "\u2581approaches": 6417, "action": 6418, "\u2581Graham": 6419, "\u2581delayed": 6420, "\u2581Natural": 6421, "\u2581connections": 6422, "\u2581borders": 6423, "\u2581Bla": 6424, "\u2581wire": 6425, "ising": 6426, "\u2581Support": 6427, "\u2581Watch": 6428, "\u2581charity": 6429, "\u2581gradually": 6430, "\u2581CIA": 6431, "\u2581unions": 6432, "\u2581Word": 6433, "press": 6434, "600": 6435, "\u2581Warner": 6436, "\u2581trials": 6437, "\u2581editorial": 6438, "\u2581commit": 6439, "\u2581Mill": 6440, "\u2581whenever": 6441, "\u2581welcomed": 6442, "\u2581View": 6443, "\u2581CBS": 6444, "\u2581Yankees": 6445, "\u2581bull": 6446, "ua": 6447, "\u2581separated": 6448, "cle": 6449, "\u2581Ter": 6450, "\u2581Barack": 6451, "\u2581ultimate": 6452, "\u2581addresses": 6453, "\u2581actors": 6454, "\u2581shadow": 6455, "\u2581fur": 6456, "\u2581secured": 6457, "lor": 6458, "\u2581bases": 6459, "\u2581announce": 6460, "<": 6461, "\u25811962": 6462, "uni": 6463, "\u2581Between": 6464, "\u2581Cre": 6465, "\u2581broader": 6466, "\u2581Hindu": 6467, "Ta": 6468, "uch": 6469, "\u2581Environmental": 6470, "\u2581aims": 6471, "\u2581breathing": 6472, "\u2581Mas": 6473, "\u258157": 6474, "\u2581relation": 6475, "\u25811968": 6476, "\u258124,": 6477, "\u2581grip": 6478, "\u2581Within": 6479, "\u2581Gro": 6480, "\u2581Much": 6481, "\u2581satisfied": 6482, "\u2581compare": 6483, "\u2581introduce": 6484, "had": 6485, "\u2581universe": 6486, "cker": 6487, "\u2581wanting": 6488, "\u2581expanding": 6489, "\u2581$": 6490, "will": 6491, "8,000": 6492, "yer": 6493, "\u2581burn": 6494, "oz": 6495, "\u2581glanced": 6496, "\u2581Oscar": 6497, "\u2581Francis": 6498, "Can": 6499, "Mi": 6500, "\u2581firing": 6501, "\u2581mechanism": 6502, "\u2581protecting": 6503, "\u2581Look": 6504, "\u2581Stanley": 6505, "\u2581arranged": 6506, "dent": 6507, "\u2581hunting": 6508, "try": 6509, "\u2581unlike": 6510, "\u2581jurisdiction": 6511, "\u2581Interior": 6512, "rod": 6513, "cept": 6514, "\u2581utility": 6515, "\u2581Morris": 6516, "\u2581leaned": 6517, "\u2581terrible": 6518, "TS": 6519, "\u2581demonstrated": 6520, "cash": 6521, "NS": 6522, "Car": 6523, "Okay": 6524, "kov": 6525, "\u2581toll": 6526, "\u2581explains": 6527, "\u2581Final": 6528, "\u2581odd": 6529, "\u2581Which": 6530, "\u2581metres": 6531, "\u2581punishment": 6532, "\u258131,": 6533, "\u2581Officer": 6534, "bre": 6535, "ao": 6536, "\u2581physician": 6537, "\u2581instruments": 6538, "nis": 6539, "\u2581cake": 6540, "\u2581IBM": 6541, "\u2581chamber": 6542, "EN": 6543, "\u2581citizen": 6544, "rah": 6545, "\u2581withdraw": 6546, "\u258158": 6547, "\u2581Singh": 6548, "boy": 6549, "\u2581Robinson": 6550, "\u2581Senator": 6551, "\u2581vulnerable": 6552, "speed": 6553, "\u2581guaranteed": 6554, "\u2581waves": 6555, "ering": 6556, "MB": 6557, "\u2581experiment": 6558, "\u2581Luc": 6559, "\u2581Utah": 6560, "\u2581spots": 6561, "\u2581Andre": 6562, "pl": 6563, "\u2581gang": 6564, "\u2581operator": 6565, "\u2581developers": 6566, "boo": 6567, "\u2581inquiry": 6568, "\u2581adopt": 6569, "\u2581celebrated": 6570, "fo": 6571, "\u2581cry": 6572, "\u2581Bus": 6573, "\u2581formerly": 6574, "\u2581laptop": 6575, "pper": 6576, "\u2581sounded": 6577, "sive": 6578, "\u2581Sound": 6579, "\u2581shield": 6580, "\u2581Cambridge": 6581, "\u2581friendship": 6582, "\u2581Shah": 6583, "\u2581essentially": 6584, "\u2581employer": 6585, "OC": 6586, "vy": 6587, "\u2581underground": 6588, "\u2581Athens": 6589, "\u2581Ce": 6590, "\u25811963": 6591, "\u2581Child": 6592, "Good": 6593, "away": 6594, "\u2581regret": 6595, "\u2581Bio": 6596, "\u2581deeper": 6597, "PC": 6598, "\u2581refers": 6599, "\u2581Staff": 6600, "\u2581paintings": 6601, "\u2581Larry": 6602, "\u2581interpretation": 6603, "\u2581Bon": 6604, "\u2581recall": 6605, "\u2581quietly": 6606, "\u2581Philippine": 6607, "BC": 6608, "\u2581hero": 6609, "\u2581filing": 6610, "org": 6611, "elli": 6612, "\u2581Ye": 6613, "UC": 6614, "\u25811973": 6615, "nar": 6616, "\u2581dying": 6617, "\u2581retain": 6618, "\u25811998,": 6619, "\u2581wondered": 6620, "\u2581Fred": 6621, "\u2581revenues": 6622, "\u2581bands": 6623, "\u2581blend": 6624, "\u2581fabric": 6625, "\u2581samples": 6626, "\u2581distinct": 6627, "char": 6628, "\u2581consultant": 6629, "\u2581checked": 6630, "\u25811995,": 6631, "only": 6632, "\u2581adds": 6633, "\u2581Campbell": 6634, "\u2581thirty": 6635, "\u2581ages": 6636, "\u2581modest": 6637, "\u2581adviser": 6638, "\u25811996,": 6639, "\u2581demonstrate": 6640, "arch": 6641, "\u2581Insurance": 6642, "\u2581tunnel": 6643, "\u2581tables": 6644, "\u2581Roll": 6645, "\u2581Junior": 6646, "\u2581Villa": 6647, "\u2581Em": 6648, "\u2581skill": 6649, "cin": 6650, "rock": 6651, "\u2581Portuguese": 6652, "\u2581twelve": 6653, "\u2581Des": 6654, "\u2581slide": 6655, "\u2581arrangements": 6656, "lig": 6657, "\u2581municipal": 6658, "\u2581Pass": 6659, "eth": 6660, "\u2581vessel": 6661, "\u2581excess": 6662, "\u2581FC": 6663, "\u2581$8": 6664, "\u2581Mun": 6665, "\u2581Sunni": 6666, "\u2581till": 6667, "\u2581coaches": 6668, "\u2581executed": 6669, "\u2581imports": 6670, "\u2581Russell": 6671, "grade": 6672, "\u2581nobody": 6673, "ale": 6674, "\u2581slid": 6675, "\u2581southeast": 6676, "Ho": 6677, "\u2581founding": 6678, "\u25811948": 6679, "\u2581Industry": 6680, "\u2581Television": 6681, "\u2581Sox": 6682, "two": 6683, "tho": 6684, "keeper": 6685, "\u2581transaction": 6686, "mir": 6687, "oma": 6688, "Com": 6689, "\u2581Qui": 6690, "read": 6691, "\u2581hat": 6692, "\u2581adventure": 6693, "\u2581Officials": 6694, "\u2581disk": 6695, "\u2581Kal": 6696, "\u2581styles": 6697, "\u2581fax": 6698, "\u2581hung": 6699, "\u2581bra": 6700, "\u2581carries": 6701, "test": 6702, "\u2581violation": 6703, "\u2581collapsed": 6704, "\u2581Ol": 6705, "\u2581premium": 6706, "\u25811977": 6707, "\u2581somebody": 6708, "\u2581beaten": 6709, "\u2581chocolate": 6710, "\u2581$9": 6711, "ax": 6712, "\u2581crashed": 6713, "\u2581certified": 6714, "\u2581permitted": 6715, "\u2581Chan": 6716, "\u2581bench": 6717, "\u2581choosing": 6718, "\u2581basically": 6719, "met": 6720, "\u2581NO": 6721, "\u2581balls": 6722, "name": 6723, "\u2581renamed": 6724, "\u2581viewers": 6725, "\u2581optional": 6726, "\u2581Action": 6727, "\u2581Rad": 6728, "rian": 6729, "\u2581Java": 6730, "front": 6731, "worth": 6732, "\u2581Video": 6733, "\u258118,": 6734, "\u2581focusing": 6735, "million": 6736, "winning": 6737, "\u2581bay": 6738, "\u2581stem": 6739, "\u2581Tehran": 6740, "\u2581tanks": 6741, "\u258122,": 6742, "\u2581Ian": 6743, "oid": 6744, "\u2581arrangement": 6745, "\u2581Christians": 6746, "\u2581bulk": 6747, "\u2581probe": 6748, "ration": 6749, "\u2581characteristics": 6750, "enberg": 6751, "cri": 6752, "\u2581import": 6753, "oriented": 6754, "\u2581Syrian": 6755, "\u2581tender": 6756, "\u2581Baker": 6757, "\u2581harsh": 6758, "\u2581bombs": 6759, "\u2581Classic": 6760, "\u2581Full": 6761, "\u2581acquire": 6762, "\u2581championships": 6763, "\u258166": 6764, "\u2581Hor": 6765, "aj": 6766, "\u2581Ly": 6767, "\u2581wider": 6768, "\u2581fiction": 6769, "\u2581anybody": 6770, "\u2581scope": 6771, "hole": 6772, "\u2581darkness": 6773, "\u2581restored": 6774, "\u2581communicate": 6775, "\u2581beef": 6776, "such": 6777, "\u2581lighting": 6778, "\u2581seal": 6779, "\u2581derived": 6780, "\u2581Netanyahu": 6781, "\u2581Costa": 6782, "after": 6783, "dle": 6784, "\u2581Ch": 6785, "\u2581traders": 6786, "\u2581hook": 6787, "\u2581representation": 6788, "\u2581Venezuela": 6789, "was": 6790, "\u2581vessels": 6791, "ona": 6792, "\u2581feedback": 6793, "\u258121,": 6794, "\u2581Additionally": 6795, "\u2581Donald": 6796, "\u2581slot": 6797, "lam": 6798, "\u2581elite": 6799, "\u2581striking": 6800, "\u2581NCAA": 6801, "\u2581sustainable": 6802, "just": 6803, "\u2581shelter": 6804, "\u2581180": 6805, "\u2581Week": 6806, "\u2581urge": 6807, "ute": 6808, "vel": 6809, "\u2581isolated": 6810, "\u2581tune": 6811, "\u2581bombings": 6812, "\u258130,": 6813, "cc": 6814, "spect": 6815, "\u2581grave": 6816, "\u2581sleeping": 6817, "\u2581Southeast": 6818, "\u2581sectors": 6819, "SL": 6820, "\u2581governing": 6821, "\u2581Representatives": 6822, "tis": 6823, "\u2581tissue": 6824, "\u2581preliminary": 6825, "jan": 6826, "\u2581pale": 6827, "\u2581Kashmir": 6828, "ante": 6829, "\u2581availability": 6830, "EA": 6831, "\u2581modified": 6832, "\u2581confused": 6833, "ock": 6834, "\u2581breed": 6835, "\u2581detention": 6836, "\u2581ob": 6837, "hen": 6838, "\u2581prosecution": 6839, "\u2581Come": 6840, "\u2581Samuel": 6841, "\u2581bat": 6842, "very": 6843, "\u2581lock": 6844, "\u2581mandate": 6845, "ded": 6846, "\u2581Software": 6847, "\u2581routes": 6848, "\u2581Delhi": 6849, "\u2581indicates": 6850, "\u2581Liverpool": 6851, "\u2581counties": 6852, "\u2581pension": 6853, "\u2581Romania": 6854, "\u2581Digital": 6855, "\u2581Upon": 6856, "\u2581Magazine": 6857, "\u2581bath": 6858, "\u2581enterprise": 6859, "\u2581ingredients": 6860, "\u2581Hispanic": 6861, "vol": 6862, "imp": 6863, "\u2581Mission": 6864, "\u2581600": 6865, "ean": 6866, "\u2581Charlie": 6867, "\u2581throwing": 6868, "\u2581disappointed": 6869, "\u2581Revolution": 6870, "\u2581rely": 6871, "\u2581sees": 6872, "aries": 6873, "\u2581Age": 6874, "\u2581couples": 6875, "\u2581reflected": 6876, "gram": 6877, "\u2581Moon": 6878, "\u2581provinces": 6879, "IL": 6880, "\u2581concentration": 6881, "\u2581devoted": 6882, "\u2581Mat": 6883, "pel": 6884, "\u2581adapt": 6885, "\u2581deployment": 6886, "\u2581Sony": 6887, "\u2581missiles": 6888, "gun": 6889, "\u2581Protection": 6890, "\u2581attempting": 6891, "och": 6892, "\u2581suggestions": 6893, "\u2581Agreement": 6894, "ition": 6895, "\u2581Sil": 6896, "\u2581periods": 6897, "\u2581influenced": 6898, "ore": 6899, "\u2581celebration": 6900, "\u258128,": 6901, "\u2581disorder": 6902, "\u2581speculation": 6903, "\u2581sweat": 6904, "\u2581pepper": 6905, "\u2581acted": 6906, "\u2581expense": 6907, "\u2581Professional": 6908, "ces": 6909, "Or": 6910, "EL": 6911, "7,000": 6912, "\u2581commissioner": 6913, "\u2581Historic": 6914, "\u2581crystal": 6915, "EX": 6916, "\u2581sum": 6917, "\u2581Song": 6918, "aya": 6919, "\u2581100,000": 6920, "\u25811961": 6921, "\u2581Movement": 6922, "\u2581crown": 6923, "\u2581elderly": 6924, "\u2581fantastic": 6925, "\u2581romantic": 6926, "\u2581Steven": 6927, "\u2581Oak": 6928, "night": 6929, "check": 6930, "bus": 6931, "\u2581honour": 6932, "\u2581trends": 6933, "\u2581Forum": 6934, "ST": 6935, "\u2581classical": 6936, "\u2581Others": 6937, "\u2581ho": 6938, "\u2581Yeltsin": 6939, "\u2581*": 6940, "\u2581horror": 6941, "site": 6942, "rag": 6943, "bul": 6944, "\u2581Gor": 6945, "\u2581chip": 6946, "\u2581Serbian": 6947, "\u2581Boeing": 6948, "cip": 6949, "\u2581span": 6950, "also": 6951, "\u2581bike": 6952, "\u2581Toyota": 6953, "\u2581Murray": 6954, "\u2581Members": 6955, "Where": 6956, "\u2581literary": 6957, "\u2581proportion": 6958, "\u2581Jacob": 6959, "\u2581Simpson": 6960, "\u2581encounter": 6961, "nic": 6962, "\u2581inform": 6963, "lit": 6964, "\u2581Ag": 6965, "\u2581trips": 6966, "\u258162": 6967, "\u2581worship": 6968, "\u2581Hills": 6969, "\u2581sustained": 6970, "\u2581nursing": 6971, "DP": 6972, "\u2581Ren": 6973, "\u2581Wayne": 6974, "\u2581Independent": 6975, "\u2581temperatures": 6976, "\u2581recipe": 6977, "\u2581Member": 6978, "\u2581dining": 6979, "\u2581licensed": 6980, "\u2581declaration": 6981, "\u2581produces": 6982, "\u2581ignore": 6983, "\u2581Gun": 6984, "\u25811997,": 6985, "\u2581Safety": 6986, "\u2581Pop": 6987, "\u2581Barcelona": 6988, "\u2581enemies": 6989, "\u2581disabled": 6990, "\u2581Cam": 6991, "sson": 6992, "\u2581operational": 6993, "iff": 6994, "\u2581pen": 6995, "anda": 6996, "\u2581substance": 6997, "ska": 6998, "\u2581Run": 6999, "\u2581promises": 7000, "\u2581Spirit": 7001, "\u2581Commonwealth": 7002, "\u2581notably": 7003, "\u2581jazz": 7004, "oli": 7005, "\u2581sponsored": 7006, "gon": 7007, "\u2581Stra": 7008, "\u25811944": 7009, "\u2581transactions": 7010, "\u2581poly": 7011, "\u2581fastest": 7012, "\u25811947": 7013, "\u2581Karl": 7014, "\u2581purchasing": 7015, "MS": 7016, "piece": 7017, "ain": 7018, "\u2581approve": 7019, "\u2581settings": 7020, "\u2581grants": 7021, "\u258123,": 7022, "\u2581departments": 7023, "\u2581march": 7024, "\u2581Jerry": 7025, "\u2581composition": 7026, "itch": 7027, "\u2581escaped": 7028, "\u2581memorial": 7029, "\u2581Montreal": 7030, "\u25811994,": 7031, "tation": 7032, "\u2581instrument": 7033, "\u2581Adams": 7034, "\u2581unclear": 7035, "\u2581condemned": 7036, "\u2581developments": 7037, "\u2581graphics": 7038, "\u2581IN": 7039, "\u2581placing": 7040, "gam": 7041, "\u2581piano": 7042, "\u2581Forces": 7043, "\u2581vowed": 7044, "\u2581chips": 7045, "\u2581CA": 7046, "AN": 7047, "\u2581Charlotte": 7048, "hor": 7049, "\u2581Ros": 7050, "\u2581economist": 7051, "\u2581packages": 7052, "\u2581Room": 7053, "\u2581mistakes": 7054, "\u2581ranking": 7055, "\u2581Indians": 7056, "\u2581spell": 7057, "\u2581stolen": 7058, "gro": 7059, "\u2581rid": 7060, "og": 7061, "\u2581sentiment": 7062, "\u2581pa": 7063, "\u2581Native": 7064, "\u2581comply": 7065, "\u2581ears": 7066, "\u2581prospects": 7067, "\u2581campaigns": 7068, "\u2581Hunter": 7069, "\u2581renewed": 7070, "\u2581assured": 7071, "\u2581albums": 7072, "\u2581wound": 7073, "\u2581lyrics": 7074, "\u2581liability": 7075, "\u2581PA": 7076, "tus": 7077, "\u2581musicians": 7078, "weight": 7079, "post": 7080, "\u2581rushed": 7081, "\u2581frequency": 7082, "\u2581wondering": 7083, "\u2581CO": 7084, "\u2581hiding": 7085, "\u2581lease": 7086, "\u258113,": 7087, "\u2581publisher": 7088, "\u2581define": 7089, "\u2581charter": 7090, "\u2581evolution": 7091, "cut": 7092, "\u2581Sto": 7093, "\u2581playoff": 7094, "\u2581credits": 7095, "BS": 7096, "\u2581notion": 7097, "\u2581Dole": 7098, "ered": 7099, "\u2581Nazi": 7100, "horn": 7101, "\u2581angle": 7102, "\u2581conservation": 7103, "\u2581gene": 7104, "\u2581juice": 7105, "\u2581DC": 7106, "\u2581advised": 7107, "\u2581Vol": 7108, "\u2581breaks": 7109, "ify": 7110, "pot": 7111, "\u2581fluid": 7112, "\u2581wage": 7113, "aging": 7114, "\u2581Puerto": 7115, "\u2581opinions": 7116, "\u2581Metro": 7117, "SP": 7118, "\u2581affair": 7119, "\u2581absolute": 7120, "\u2581respective": 7121, "\u2581knife": 7122, "\u2581survival": 7123, "mod": 7124, "\u25811945": 7125, "\u2581NASA": 7126, "\u2581Wright": 7127, "\u2581Peru": 7128, "\u2581divorce": 7129, "\u2581Fri": 7130, "PO": 7131, "uck": 7132, "screen": 7133, "\u2581publications": 7134, "El": 7135, "pound": 7136, "\u2581kicked": 7137, "\u2581tremendous": 7138, "\u2581engagement": 7139, "bla": 7140, "\u2581Training": 7141, "\u2581brilliant": 7142, "\u258119,": 7143, "\u2581rolling": 7144, "wind": 7145, "\u2581Hampshire": 7146, "\u2581Milosevic": 7147, "\u2581printing": 7148, "\u2581venue": 7149, "\u2581flesh": 7150, "\u2581Gil": 7151, "\u2581accommodate": 7152, "ovic": 7153, "\u258127,": 7154, "\u2581Benjamin": 7155, "\u2581Lawrence": 7156, "bor": 7157, "wick": 7158, "\u2581unchanged": 7159, "een": 7160, "\u2581delegates": 7161, "story": 7162, "\u2581poetry": 7163, "\u2581interim": 7164, "\u2581architect": 7165, "\u2581hike": 7166, "cell": 7167, "DC": 7168, "\u2581consensus": 7169, "\u2581Laden": 7170, "\u2581requiring": 7171, "\u2581craft": 7172, "face": 7173, "\u2581Soon": 7174, "\u2581Chu": 7175, "\u2581Dad": 7176, "\u2581holy": 7177, "\u2581Barry": 7178, "\u2581exhibit": 7179, "\u2581alarm": 7180, "\u2581desired": 7181, "ridge": 7182, "\u2581Sy": 7183, "\u2581naturally": 7184, "ump": 7185, "ela": 7186, "hit": 7187, "\u2581chronic": 7188, "\u2581threatening": 7189, "\u2581belonging": 7190, "\u2581tap": 7191, "sia": 7192, "\u25812018,": 7193, "ged": 7194, "\u2581tensions": 7195, "\u2581egg": 7196, "\u2581Gas": 7197, "phone": 7198, "\u2581Mid": 7199, "\u2581occasions": 7200, "oni": 7201, "\u2581Palace": 7202, "Fi": 7203, "\u2581Mil": 7204, "roll": 7205, "home": 7206, "\u258159": 7207, "\u2581checks": 7208, "\u2581brands": 7209, "\u2581Indeed": 7210, "\u2581bass": 7211, "\u2581institute": 7212, "berry": 7213, "\u2581handful": 7214, "\u2581steep": 7215, "date": 7216, "matic": 7217, "nee": 7218, "its": 7219, "\u2581Dor": 7220, "\u2581convince": 7221, "SF": 7222, "\u2581eliminated": 7223, "\u2581Chile": 7224, "\u2581Ana": 7225, "\u2581envoy": 7226, "\u2581clashes": 7227, "via": 7228, "\u2581po": 7229, "\u2581retreat": 7230, "\u2581heritage": 7231, "ison": 7232, "\u2581Hy": 7233, "\u2581confusion": 7234, "\u2581Barbara": 7235, "\u2581Kuwait": 7236, "\u25811959": 7237, "\u2581forming": 7238, "\u2581Low": 7239, "\u2581backup": 7240, "\u2581Austrian": 7241, "held": 7242, "hill": 7243, "\u2581substitute": 7244, "\u2581Nothing": 7245, "yu": 7246, "\u258112,": 7247, "\u2581laboratory": 7248, "\u2581Fer": 7249, "ulation": 7250, "\u2581Tax": 7251, "school": 7252, "\u2581reply": 7253, "\u2581creates": 7254, "controlled": 7255, "With": 7256, "vers": 7257, "\u2581Finland": 7258, "\u2581Os": 7259, "\u2581Drug": 7260, "\u2581Again": 7261, "eau": 7262, "\u258126,": 7263, "backed": 7264, "\u2581Giants": 7265, "\u2581slight": 7266, "\u2581Round": 7267, "\u2581Roy": 7268, "\u2581survivors": 7269, "has": 7270, "\u2581scrap": 7271, "\u258114,": 7272, "\u2581lesson": 7273, "\u2581Abdul": 7274, "ill": 7275, "uff": 7276, "ree": 7277, "\u2581Store": 7278, "\u2581sacrifice": 7279, "\u2581warrant": 7280, "\u2581Bri": 7281, "\u2581everyday": 7282, "SC": 7283, "\u2581troubled": 7284, "\u2581medication": 7285, "LP": 7286, "\u25811942": 7287, "\u2581examine": 7288, "\u2581triple": 7289, "\u2581god": 7290, "\u2581bold": 7291, "\u2581educated": 7292, "pers": 7293, "\u2581dropping": 7294, "\u2581segment": 7295, "\u2581legitimate": 7296, "four": 7297, "\u2581encouraging": 7298, "\u2581Chang": 7299, "\u2581Marshall": 7300, "Li": 7301, "\u2581competitors": 7302, "inter": 7303, "\u2581AND": 7304, "ache": 7305, "\u2581Orange": 7306, "\u2581cotton": 7307, "\u2581crop": 7308, "tile": 7309, "\u2581flexible": 7310, "\u2581Chavez": 7311, "\u2581excuse": 7312, "\u2581Mom": 7313, "\u2581Jonathan": 7314, "\u2581psychological": 7315, "IM": 7316, "\u2581classroom": 7317, "mag": 7318, "\u2581gently": 7319, "\u2581extraordinary": 7320, "\u2581butter": 7321, "\u2581directions": 7322, "five": 7323, "GE": 7324, "\u2581Cyprus": 7325, "$2": 7326, "\u2581funded": 7327, "\u2581certification": 7328, "\u2581assess": 7329, "tha": 7330, "\u2581dealer": 7331, "\u2581Dog": 7332, "Constitution": 7333, "seat": 7334, "\u2581incorporated": 7335, "how": 7336, "\u2581Kin": 7337, "pun": 7338, "\u2581Hezbollah": 7339, "\u2581disc": 7340, "\u2581shit": 7341, "seeded": 7342, "\u2581Hope": 7343, "\u2581Industrial": 7344, "\u2581dump": 7345, "CI": 7346, "\u2581legend": 7347, "\u2581bitter": 7348, "\u2581FA": 7349, "\u2581reviewed": 7350, "\u2581knocked": 7351, "Qaeda": 7352, "\u2581bunch": 7353, "zz": 7354, "EE": 7355, "\u2581Grace": 7356, "Of": 7357, "lift": 7358, "Bu": 7359, "\u258129,": 7360, "\u2581actively": 7361, "\u2581Jimmy": 7362, "\u2581Youth": 7363, "\u2581expecting": 7364, "ses": 7365, "RE": 7366, "PP": 7367, "\u2581starring": 7368, "\u2581negotiate": 7369, "\u2581stroke": 7370, "Br": 7371, "\u2581panic": 7372, "\u25811956": 7373, "\u2581accuracy": 7374, "\u2581measured": 7375, "\u2581relating": 7376, "\u258163": 7377, "\u2581boards": 7378, "\u2581senator": 7379, "\u2581foster": 7380, "OL": 7381, "\u2581establishing": 7382, "\u2581wrist": 7383, "\u2581pipeline": 7384, "+": 7385, "\u2581Rod": 7386, "\u2581hub": 7387, "\u2581artistic": 7388, "\u2581Bear": 7389, "\u2581Delta": 7390, "\u2581Ur": 7391, "\u2581Rat": 7392, "\u2581fitness": 7393, "\u2581shifted": 7394, "\u2581longest": 7395, "\u2581Does": 7396, "gent": 7397, "DR": 7398, "\u2581INC": 7399, "\u2581Edwards": 7400, "\u2581Billy": 7401, "\u2581fighter": 7402, "\u2581Warren": 7403, "\u2581barrels": 7404, "\u2581arguments": 7405, "\u2581tele": 7406, "\u2581replacing": 7407, "\u2581scholars": 7408, "ident": 7409, "\u2581Gray": 7410, "\u2581maps": 7411, "\u2581mono": 7412, "\u2581mosque": 7413, "\u2581appearing": 7414, "\u2581Brad": 7415, "CL": 7416, "\u2581grab": 7417, "\u2581observers": 7418, "eva": 7419, "lies": 7420, "\u2581Contact": 7421, "Then": 7422, "UN": 7423, "\u2581frozen": 7424, "atory": 7425, "\u2581Nar": 7426, "\u2581elaborate": 7427, "\u2581gallery": 7428, "link": 7429, "\u25811941": 7430, "\u2581accordance": 7431, "\u2581infected": 7432, "leg": 7433, "\u2581attributed": 7434, "\u2581swept": 7435, "\u2581Brand": 7436, "\u2581Abdullah": 7437, "\u2581Resources": 7438, "hol": 7439, "\u2581GOP": 7440, "mine": 7441, "\u2581Medicare": 7442, "\u2581Perry": 7443, "\u2581Mitchell": 7444, "\u2581arch": 7445, "ET": 7446, "\u2581Hawaii": 7447, "\u2581legislature": 7448, "ui": 7449, "gold": 7450, "\u2581boot": 7451, "vert": 7452, "\u2581beam": 7453, "\u2581Craig": 7454, "word": 7455, "\u2581eager": 7456, "\u2581signals": 7457, "\u2581heaven": 7458, "\u2581remarkable": 7459, "\u2581knees": 7460, "\u2581discrimination": 7461, "\u2581corporations": 7462, "sville": 7463, "\u2581critic": 7464, "\u2581mounted": 7465, "\u2581operators": 7466, "\u2581Bru": 7467, "\u2581updates": 7468, "\u2581Buck": 7469, "\u2581Access": 7470, "\u2581shore": 7471, "\u2581asset": 7472, "\u2581pollution": 7473, "uring": 7474, "\u2581trick": 7475, "\u2581OK": 7476, "\u2581Carr": 7477, "\u2581quote": 7478, "\u2581OS": 7479, "\u2581Unit": 7480, "\u2581Earl": 7481, "Mar": 7482, "\u2581resolved": 7483, "\u2581filling": 7484, "rt": 7485, "\u2581compliance": 7486, "\u2581usage": 7487, "rus": 7488, "\u2581Entertainment": 7489, "\u2581queen": 7490, "\u2581Tampa": 7491, "\u2581bite": 7492, "\u2581Brothers": 7493, "\u2581diplomats": 7494, "\u2581boom": 7495, "his": 7496, "\u2581strict": 7497, "\u2581administrator": 7498, "\u2581Danish": 7499, "\u2581Vancouver": 7500, "\u2581wealthy": 7501, "\u2581configuration": 7502, "shire": 7503, "\u2581Mont": 7504, "|": 7505, "\u2581facilitate": 7506, "\u2581Wolf": 7507, "spir": 7508, "\u2581unity": 7509, "\u2581Brooklyn": 7510, "\u2581exercises": 7511, "\u2581adequate": 7512, "\u2581nurse": 7513, "\u2581upgrade": 7514, "\u2581lands": 7515, "quality": 7516, "responsibilities": 7517, "\u2581predecessor": 7518, "Lo": 7519, "lands": 7520, "\u25811949": 7521, "bas": 7522, "\u2581pin": 7523, "\u2581NY": 7524, "ila": 7525, "Your": 7526, "\u2581lip": 7527, "PS": 7528, "\u2581Cro": 7529, "\u2581Dennis": 7530, "\u2581Israelis": 7531, "\u2581pregnancy": 7532, "\u2581Tower": 7533, "\u2581strain": 7534, "\u25811958": 7535, "\u2581Quebec": 7536, "\u2581$100": 7537, "\u2581worn": 7538, "\u2581Arm": 7539, "\u2581dose": 7540, "\u2581bow": 7541, "\u2581reign": 7542, "\u2581jewelry": 7543, "\u2581flower": 7544, "\u2581palm": 7545, "\u2581Marc": 7546, "\u2581Cold": 7547, "sburg": 7548, "\u2581info": 7549, "\u2581Mir": 7550, "\u2581Plus": 7551, "\u2581suggesting": 7552, "\u2581coaching": 7553, "\u2581daughters": 7554, "\u2581Sales": 7555, "\u2581Change": 7556, "\u2581Coach": 7557, "ency": 7558, "\u2581promising": 7559, "NC": 7560, "rry": 7561, "\u2581pound": 7562, "\u2581Currently": 7563, "\u2581OPTIONAL": 7564, "\u2581sin": 7565, "rac": 7566, "this": 7567, "tie": 7568, "\u2581bloody": 7569, "\u2581Twitter": 7570, "\u2581incidents": 7571, "\u2581defender": 7572, "\u2581adjacent": 7573, "\u2581checking": 7574, "tam": 7575, "\u2581gasoline": 7576, "\u2581Wild": 7577, "tive": 7578, "\u2581presents": 7579, "\u2581rep": 7580, "\u2581cave": 7581, "\u2581regulatory": 7582, "\u25811946": 7583, "nut": 7584, "\u2581folk": 7585, "\u2581Luis": 7586, "ille": 7587, "\u2581Mai": 7588, "vor": 7589, "where": 7590, "rn": 7591, "\u2581muscles": 7592, "AB": 7593, "\u2581territories": 7594, "\u2581revised": 7595, "\u2581handled": 7596, "\u2581Arkansas": 7597, "good": 7598, "\u2581speakers": 7599, "\u2581dual": 7600, "\u2581Remember": 7601, "there": 7602, "\u2581Ak": 7603, "lou": 7604, "\u2581staring": 7605, "\u2581IP": 7606, "\u2581rocks": 7607, "\u2581wings": 7608, "stic": 7609, "Po": 7610, "\u2581patent": 7611, "\u2581inspection": 7612, "shan": 7613, "\u2581feared": 7614, "\u2581reaches": 7615, "\u2581Hurricane": 7616, "kel": 7617, "\u2581basket": 7618, "\u2581Maine": 7619, "\u2581arriving": 7620, "\u2581aired": 7621, "\u2581missions": 7622, "\u2581detect": 7623, "\u2581emerge": 7624, "ule": 7625, "\u2581inspiration": 7626, "pra": 7627, "tr": 7628, "track": 7629, "\u2581publish": 7630, "\u2581transit": 7631, "\u2581influential": 7632, "\u2581sauce": 7633, "\u2581violations": 7634, "NE": 7635, "boat": 7636, "\u25812:": 7637, "\u2581continent": 7638, "ben": 7639, "\u2581stops": 7640, "\u2581literally": 7641, "\u2581Char": 7642, "\u2581Along": 7643, "\u2581railroad": 7644, "\u2581Hell": 7645, "\u2581patrol": 7646, "pass": 7647, "\u2581hurricane": 7648, "\u2581dancing": 7649, "\u2581impose": 7650, "\u2581loop": 7651, "\u2581engineers": 7652, "\u2581chemicals": 7653, "\u2581painful": 7654, "\u2581temporarily": 7655, "\u2581Total": 7656, "\u2581trigger": 7657, "\u2581gaining": 7658, "\u2581vegetables": 7659, "\u2581deny": 7660, "ically": 7661, "\u2581Zi": 7662, "nal": 7663, "\u2581Asked": 7664, "\u2581mall": 7665, "\u2581hyper": 7666, "ester": 7667, "\u2581acknowledge": 7668, "\u2581Spa": 7669, "\u2581Emperor": 7670, "\u2581subscription": 7671, "\u2581neuro": 7672, "kes": 7673, "\u2581seeds": 7674, "!!": 7675, "\u2581achievement": 7676, "\u2581earliest": 7677, "\u2581dam": 7678, "cia": 7679, "verse": 7680, "\u2581defended": 7681, "\u2581pilots": 7682, "\u2581naval": 7683, "\u2581Dream": 7684, "\u2581judicial": 7685, "itis": 7686, "rr": 7687, "\u258168": 7688, "\u2581Ukrainian": 7689, "\u2581economies": 7690, "\u2581counts": 7691, "MT": 7692, "\u2581im": 7693, "\u2581cabin": 7694, "\u2581viewing": 7695, "\u2581shed": 7696, "Fa": 7697, "\u2581adoption": 7698, "\u258117,": 7699, "\u2581Gui": 7700, "2000": 7701, "\u2581cooperate": 7702, "\u2581Base": 7703, "\u2581Vienna": 7704, "\u2581Try": 7705, "\u2581emotions": 7706, "\u2581Socialist": 7707, "\u25813,000": 7708, "\u2581Fame": 7709, "\u2581Amazon": 7710, "\u2581dirt": 7711, "\u2581focuses": 7712, "\u2581Sean": 7713, "\u2581forgotten": 7714, "\u2581tribal": 7715, "\u258115,": 7716, "OT": 7717, "\u2581praise": 7718, "\u2581photography": 7719, "\u2581MA": 7720, "\u2581consulting": 7721, "\u2581interaction": 7722, "\u2581Gene": 7723, "\u2581Content": 7724, "\u2581dominant": 7725, "\u2581scared": 7726, "\u2581iPhone": 7727, "\u2581deemed": 7728, "\u2581cattle": 7729, "\u2581healthcare": 7730, "\u258125,": 7731, "looking": 7732, "\u2581Investment": 7733, "\u2581202": 7734, "may": 7735, "\u2581amongst": 7736, "TH": 7737, "\u2581Shu": 7738, "\u2581<": 7739, "\u2581attorneys": 7740, "\u2581interactive": 7741, "\u2581Stan": 7742, "\u2581Assistant": 7743, "dor": 7744, "\u2581Gill": 7745, "\u2581Portland": 7746, "\u2581dependent": 7747, "\u2581transform": 7748, "lly": 7749, "\u2581initiatives": 7750, "LO": 7751, "trans": 7752, "\u2581Snow": 7753, "\u2581mainstream": 7754, "AR": 7755, "\u2581Mus": 7756, "\u2581damn": 7757, "arm": 7758, "\u2581satisfaction": 7759, "\u2581momentum": 7760, "\u2581picking": 7761, "\u2581Bernard": 7762, "\u2581Lar": 7763, "\u2581Pin": 7764, "\u2581hunt": 7765, "\u2581pledge": 7766, "\u2581innovation": 7767, "\u2581earning": 7768, "\u2581Shin": 7769, "\u2581Model": 7770, "\u2581Monte": 7771, "rating": 7772, "\u2581Norman": 7773, "\u2581closest": 7774, "\u2581determination": 7775, "\u2581cord": 7776, "\u2581Relations": 7777, "mond": 7778, "Hey": 7779, "\u2581rubber": 7780, "general": 7781, "iness": 7782, "\u2581lasted": 7783, "\u2581integrity": 7784, "\u2581holidays": 7785, "ava": 7786, "\u2581Au": 7787, "\u2581exploded": 7788, "\u2581indoor": 7789, "\u2581Modern": 7790, "vid": 7791, "\u2581inhabitants": 7792, "\u2581Article": 7793, "\u25811957": 7794, "\u258185": 7795, "\u2581garage": 7796, "\u2581clinic": 7797, "\u2581contacts": 7798, "\u2581stance": 7799, "\u2581Brussels": 7800, "\u258116,": 7801, "\u2581Tiger": 7802, "\u2581Gan": 7803, "\u2581proceed": 7804, "\u2581waist": 7805, "late": 7806, "\u2581enterprises": 7807, "\u2581incredible": 7808, "\u2581Everyone": 7809, "load": 7810, "bol": 7811, "\u2581tag": 7812, "AT": 7813, "\u2581gate": 7814, "\u2581VI": 7815, "\u2581Hungary": 7816, "\u2581concepts": 7817, "\u2581tours": 7818, "\u2581impressed": 7819, "\u2581mechanical": 7820, "\u2581generations": 7821, "ote": 7822, "\u2581Ran": 7823, "ites": 7824, "size": 7825, "\u2581Lan": 7826, "\u2581uncle": 7827, "cht": 7828, "pet": 7829, "\u2581poet": 7830, "\u2581universal": 7831, "CM": 7832, "\u2581magazines": 7833, "Maybe": 7834, "\u2581Liu": 7835, "\u2581thinks": 7836, "\u2581Wei": 7837, "\u2581closure": 7838, "CA": 7839, "\u2581Sol": 7840, "dr": 7841, "sel": 7842, "\u2581ST": 7843, "\u2581Start": 7844, "\u2581Kings": 7845, "\u2581bearing": 7846, "\u2581existed": 7847, "\u2581playoffs": 7848, "\u2581Agriculture": 7849, "\u2581identification": 7850, "\u2581motorcycle": 7851, "\u2581veterans": 7852, "\u2581Franklin": 7853, "\u2581Nan": 7854, "tric": 7855, "\u2581investigations": 7856, "\u2581pressing": 7857, "\u2581Should": 7858, "\u2581Haiti": 7859, "ori": 7860, "ates": 7861, "\u2581profession": 7862, "\u2581prevention": 7863, "\u2581appeals": 7864, "\u2581Township": 7865, "\u2581damages": 7866, "\u2581mild": 7867, "\u2581CAN": 7868, "\u2581tracking": 7869, "\u2581Fall": 7870, "\u2581diversity": 7871, "Some": 7872, "lent": 7873, "Un": 7874, "\u25811939": 7875, "white": 7876, "\u2581Victor": 7877, "\u2581forests": 7878, "\u2581odds": 7879, "\u2581Luke": 7880, "\u2581diplomat": 7881, "CD": 7882, "\u2581Terry": 7883, "\u2581acceptable": 7884, "\u2581convenient": 7885, "\u2581restricted": 7886, "\u2581Would": 7887, "\u2581Vladimir": 7888, "\u2581loaded": 7889, "\u2581versus": 7890, "ement": 7891, "lac": 7892, "\u2581belong": 7893, "\u2581App": 7894, "adi": 7895, "700": 7896, "HS": 7897, "\u2581divisions": 7898, "\u2581alien": 7899, "\u2581sophisticated": 7900, "\u2581Wen": 7901, "\u2581rugby": 7902, "\u2581stairs": 7903, "\u2581Nepal": 7904, "\u2581outlook": 7905, "\u2581workshop": 7906, "\u2581cousin": 7907, "\u258176": 7908, "\u2581midfielder": 7909, "\u2581Az": 7910, "\u2581counterpart": 7911, "\u2581supplied": 7912, "\u2581diabetes": 7913, "\u2581trap": 7914, "une": 7915, "\u2581AC": 7916, "lim": 7917, "\u2581Reform": 7918, "\u2581Chelsea": 7919, "\u2581Belgian": 7920, "ear": 7921, "\u2581turnover": 7922, "\u2581applying": 7923, "final": 7924, "handed": 7925, "\u2581militia": 7926, "\u2581minds": 7927, "\u2581makers": 7928, "\u2581challenged": 7929, "\u2581cart": 7930, "\u2581discipline": 7931, "PT": 7932, "\u2581continuous": 7933, "\u2581instantly": 7934, "\u2581crops": 7935, "tte": 7936, "vision": 7937, "\u2581Margaret": 7938, "\u2581Penn": 7939, "stock": 7940, "\u2581torture": 7941, "\u2581Sara": 7942, "\u2581plug": 7943, "\u258167": 7944, "ih": 7945, "\u2581Consumer": 7946, "\u2581resign": 7947, "rous": 7948, "\u2581dear": 7949, "\u2581newsletter": 7950, "\u2581Hen": 7951, "\u2581spare": 7952, "\u2581Il": 7953, "wed": 7954, "AH": 7955, "\u2581fake": 7956, "\u2581contents": 7957, "\u2581releases": 7958, "\u2581Speaking": 7959, "\u2581radiation": 7960, "\u2581SP": 7961, "ass": 7962, "\u2581generic": 7963, "\u2581airlines": 7964, "\u25811953": 7965, "esh": 7966, "#": 7967, "\u2581LA": 7968, "hom": 7969, "sar": 7970, "\u2581arena": 7971, "\u2581tube": 7972, "\u2581Seoul": 7973, "%": 7974, "ending": 7975, "\u2581jaw": 7976, "uz": 7977, "\u2581Moreover": 7978, "\u2581lending": 7979, "\u2581drag": 7980, "\u2581Being": 7981, "\u2581Help": 7982, "Je": 7983, "\u2581tens": 7984, "\u2581grace": 7985, "\u2581Tigers": 7986, "\u2581meals": 7987, "\u2581Learn": 7988, "lla": 7989, "\u2581audit": 7990, "\u2581Salt": 7991, "\u2581marking": 7992, "\u2581activist": 7993, "\u2581collections": 7994, "\u2581Doctor": 7995, "\u2581Rich": 7996, "\u2581consisted": 7997, "\u2581carpet": 7998, "\u2581rape": 7999, "\u2581Step": 8000, "\u2581completing": 8001, "\u2581pile": 8002, "\u258161": 8003, "pla": 8004, "\u2581Form": 8005, "\u2581reject": 8006, "\u2581Ny": 8007, "\u2581safely": 8008, "\u2581Gla": 8009, "\u2581Evans": 8010, "tta": 8011, "\u2581Ob": 8012, "casinowww": 8013, "iri": 8014, "\u2581retained": 8015, "\u2581Kent": 8016, "\u2581teen": 8017, "\u2581NOT": 8018, "\u2581instruction": 8019, "\u2581gambling": 8020, "\u2581combine": 8021, "\u2581Lang": 8022, "\u2581surge": 8023, "pha": 8024, "bad": 8025, "largest": 8026, "\u2581minimal": 8027, "\u2581phrase": 8028, "\u25811955": 8029, "\u2581Lou": 8030, "\u2581anxiety": 8031, "live": 8032, "\u2581stating": 8033, "gre": 8034, "\u2581Census": 8035, "\u2581graphic": 8036, "ffer": 8037, "\u2581peer": 8038, "\u2581Kha": 8039, "\u2581Linux": 8040, "\u2581Colin": 8041, "\u2581frustration": 8042, "\u2581Fo": 8043, "\u2581Kam": 8044, "cam": 8045, "\u2581commissioned": 8046, "\u2581figured": 8047, "\u2581touchdown": 8048, "\u2581screening": 8049, "\u2581enabled": 8050, "\u2581Queensland": 8051, "\u2581Madison": 8052, "\u2581MS": 8053, "\u2581physically": 8054, "\u2581accomplished": 8055, "\u2581Annan": 8056, "\u2581Kit": 8057, "\u2581Ward": 8058, "nc": 8059, "Free": 8060, "acre": 8061, "\u2581politically": 8062, "\u2581patch": 8063, "\u2581significance": 8064, "ager": 8065, "\u2581nest": 8066, "\u2581foul": 8067, "\u2581parks": 8068, "\u2581pending": 8069, "\u2581Buy": 8070, "\u2581donations": 8071, "\u2581certificate": 8072, "\u2581spectacular": 8073, "\u2581drives": 8074, "\u2581da": 8075, "\u2581donated": 8076, "\u2581applicable": 8077, "\u2581proceedings": 8078, "\u2581wildlife": 8079, "\u2581amendment": 8080, "gas": 8081, "\u2581Todd": 8082, "\u2581consistently": 8083, "\u2581organisations": 8084, "\u2581Broadway": 8085, "\u2581oxygen": 8086, "\u2581Leon": 8087, "\u2581surprising": 8088, "\u2581Hay": 8089, "\u25811954": 8090, "\u2581reserved": 8091, "ello": 8092, "\u2581laser": 8093, "\u2581desperate": 8094, "\u2581Further": 8095, "hoo": 8096, "\u2581keyboard": 8097, "\u2581stopping": 8098, "bot": 8099, "shirt": 8100, "\u2581Cooper": 8101, "\u2581knock": 8102, "\u25811943": 8103, "\u2581Pla": 8104, "\u2581Geneva": 8105, "\u2581grain": 8106, "\u2581timing": 8107, "\u2581Too": 8108, "\u2581lovely": 8109, "ried": 8110, "\u2581Iron": 8111, "\u2581Hat": 8112, "\u2581labour": 8113, "2,000": 8114, "\u2581listings": 8115, "\u2581Dia": 8116, "\u2581Gallery": 8117, "\u2581declare": 8118, "Ac": 8119, "\u2581traditionally": 8120, "\u2581negotiating": 8121, "\u2581conducting": 8122, "\u2581unexpected": 8123, "\u2581fed": 8124, "sie": 8125, "BI": 8126, "\u2581subsidiary": 8127, "CO": 8128, "\u2581attacking": 8129, "RT": 8130, "\u2581confirmation": 8131, "AU": 8132, "\u2581Him": 8133, "\u2581healing": 8134, "friendly": 8135, "\u2581Looking": 8136, "ls": 8137, "\u2581bones": 8138, "\u2581Xinhua": 8139, "best": 8140, "\u2581insurgents": 8141, "\u2581boundaries": 8142, "\u2581Student": 8143, "rel": 8144, "mble": 8145, "\u2581investor": 8146, "\u2581sizes": 8147, "\u2581colonial": 8148, "\u2581dish": 8149, "\u2581treatments": 8150, "\u2581refugee": 8151, "\u2581mystery": 8152, "phy": 8153, "\u2581Crown": 8154, "\u2581demonstration": 8155, "\u2581Parker": 8156, "\u258120,": 8157, "\u2581Kurdish": 8158, "dit": 8159, "\u2581objectives": 8160, "\u2581Liberation": 8161, "\u2581Lane": 8162, "\u2581shocked": 8163, "\u2581shuttle": 8164, "\u2581pointing": 8165, "\u2581Electric": 8166, "\u2581reconstruction": 8167, "\u2581favourite": 8168, "\u2581resist": 8169, "gle": 8170, "\u2581Sign": 8171, "\u2581excessive": 8172, "\u2581hybrid": 8173, "\u2581grid": 8174, "\u2581longtime": 8175, "\u2581signature": 8176, "\u2581copper": 8177, "shot": 8178, "ways": 8179, "share": 8180, "\u2581Wind": 8181, "\u2581layout": 8182, "\u2581refuse": 8183, "\u2581fierce": 8184, "BO": 8185, "EP": 8186, "\u2581functional": 8187, "\u2581flows": 8188, "\u2581weird": 8189, "\u2581Never": 8190, "\u2581organ": 8191, "\u2581humanity": 8192, "\u2581Political": 8193, "\u2581sink": 8194, "\u2581ghost": 8195, "\u2581inspectors": 8196, "\u2581landmark": 8197, "\u2581surrender": 8198, "\u2581charts": 8199, "\u2581surplus": 8200, "\u2581icon": 8201, "\u2581Say": 8202, "\u2581bail": 8203, "\u2581Masters": 8204, "\u2581babies": 8205, "nik": 8206, "cing": 8207, "\u2581Johnny": 8208, "See": 8209, "\u2581conviction": 8210, "\u2581Th": 8211, "\u2581pricing": 8212, "\u2581distant": 8213, "\u2581underlying": 8214, "hur": 8215, "\u2581codes": 8216, "hum": 8217, "ago": 8218, "\u25811952": 8219, "\u2581warming": 8220, "ien": 8221, "\u2581makeup": 8222, "\u2581tribute": 8223, "\u2581girlfriend": 8224, "\u25811993,": 8225, "\u2581payday": 8226, "\u2581receiver": 8227, "mbo": 8228, "\u2581Congo": 8229, "\u2581kilometres": 8230, "\u2581Prix": 8231, "LT": 8232, "\u2581mouse": 8233, "\u2581organize": 8234, "\u2581settlements": 8235, "\u2581Sierra": 8236, "rim": 8237, "\u2581Robin": 8238, "\u2581AM": 8239, "wen": 8240, "\u2581thumb": 8241, "\u2581victories": 8242, "IF": 8243, "\u2581enjoying": 8244, "\u2581conflicts": 8245, "\u2581documentation": 8246, "\u2581admission": 8247, "\u2581Everything": 8248, "\u2581discussing": 8249, "\u2581Based": 8250, "\u2581puts": 8251, "eli": 8252, "\u2581hiring": 8253, "lick": 8254, "\u2581Justin": 8255, "RS": 8256, "\u2581acceptance": 8257, "chen": 8258, "\u2581flexibility": 8259, "\u2581ensuring": 8260, "\u2581Kate": 8261, "stead": 8262, "\u2581specialized": 8263, "\u2581Micro": 8264, "\u2581tri": 8265, "\u2581trapped": 8266, "\u2581wishes": 8267, "\u2581surveillance": 8268, "\u2581solely": 8269, "\u2581parade": 8270, "\u2581colleges": 8271, "cum": 8272, "ae": 8273, "\u2581foreigners": 8274, "ied": 8275, "ides": 8276, "\u2581Hol": 8277, "\u2581vocal": 8278, "\u2581wrap": 8279, "\u2581consisting": 8280, "\u2581SO": 8281, "\u2581Freedom": 8282, "\u2581indication": 8283, "\u2581experimental": 8284, "\u2581Mediterranean": 8285, "\u2581respected": 8286, "\u2581fifteen": 8287, "\u2581Flash": 8288, "roy": 8289, "\u2581Fra": 8290, "\u2581Golf": 8291, "olo": 8292, "\u2581adjust": 8293, "\u2581vampire": 8294, "\u2581Zo": 8295, "ups": 8296, "\u2581Kra": 8297, "\u2581artificial": 8298, "\u2581correctly": 8299, "\u2581Mobile": 8300, "\u2581sisters": 8301, "\u2581dealt": 8302, "\u2581killer": 8303, "ras": 8304, "\u2581Nevada": 8305, "\u2581Analysts": 8306, "ili": 8307, "\u2581wisdom": 8308, "\u25815,000": 8309, "\u2581attendance": 8310, "\u2581tribunal": 8311, "\u2581Capitol": 8312, "HR": 8313, "\u2581electronics": 8314, "\u2581Wy": 8315, "\u2581identical": 8316, "\u2581surely": 8317, "\u2581cheaper": 8318, "\u2581displays": 8319, "\u2581internationally": 8320, "makers": 8321, "\u2581outfit": 8322, "\u2581verdict": 8323, "\u2581nonprofit": 8324, "\u2581Iraqis": 8325, "\u2581tactics": 8326, "\u2581heating": 8327, "\u2581edited": 8328, "\u2581Collins": 8329, "sum": 8330, "\u2581stones": 8331, "\u2581Fan": 8332, "\u2581___": 8333, "Ka": 8334, "\u2581treasure": 8335, "\u2581Select": 8336, "what": 8337, "\u2581Short": 8338, "\u2581glance": 8339, "\u2581humor": 8340, "shaped": 8341, "\u2581sparked": 8342, "ii": 8343, "\u2581pants": 8344, "eta": 8345, "\u2581assassination": 8346, "\u2581describing": 8347, "\u2581wages": 8348, "\u2581Mars": 8349, "\u2581enables": 8350, "\u2581convenience": 8351, "court": 8352, "nam": 8353, "wall": 8354, "ister": 8355, "\u2581gentle": 8356, "say": 8357, "chy": 8358, "\u2581ought": 8359, "usa": 8360, "\u2581township": 8361, "rio": 8362, "\u2581Opera": 8363, "\u2581von": 8364, "\u2581Sin": 8365, "\u2581prevented": 8366, "web": 8367, "\u2581Speaker": 8368, "\u2581ankle": 8369, "\u2581reflects": 8370, "\u2581yard": 8371, "step": 8372, "\u2581curb": 8373, "\u2581bureau": 8374, "\u2581steal": 8375, "\u2581sir": 8376, "els": 8377, "eri": 8378, "\u2581medals": 8379, "\u2581removing": 8380, "\u2581Bird": 8381, "\u258169": 8382, "\u2581settlers": 8383, "\u2581accommodation": 8384, "building": 8385, "pul": 8386, "\u2581credited": 8387, "\u2581scientist": 8388, "\u2581Dublin": 8389, "\u2581Buffalo": 8390, "\u2581pursuit": 8391, "\u2581manufactured": 8392, "mun": 8393, "\u2581Roberts": 8394, "\u2581Rodriguez": 8395, "\u2581buses": 8396, "\u2581dock": 8397, "\u2581amateur": 8398, "\u2581carriers": 8399, "\u2581curriculum": 8400, "dlrs": 8401, "\u2581Bobby": 8402, "\u2581Treaty": 8403, "\u2581drinks": 8404, "mber": 8405, "\u2581networking": 8406, "\u2581Gates": 8407, "\u2581Ambassador": 8408, "\u2581withdrew": 8409, "\u2581examined": 8410, "\u2581Transportation": 8411, "AF": 8412, "\u2581Zu": 8413, "\u2581tab": 8414, "\u2581fever": 8415, "\u2581Bond": 8416, "onic": 8417, "uf": 8418, "\u2581Side": 8419, "\u2581Embassy": 8420, "\u2581alternate": 8421, "\u2581partial": 8422, "\u2581Yugoslav": 8423, "\u2581concentrate": 8424, "\u2581developer": 8425, "\u2581Ven": 8426, "\u2581Trail": 8427, "\u2581Taipei": 8428, "\u2581firmly": 8429, "\u2581jacket": 8430, "\u2581restoration": 8431, "\u2581smiling": 8432, "\u2581NHL": 8433, "\u2581prince": 8434, "\u2581Personal": 8435, "\u2581composer": 8436, "\u2581footballer": 8437, "\u2581invested": 8438, "\u2581partially": 8439, "\u2581overwhelming": 8440, "\u2581followers": 8441, "\u2581SE": 8442, "\u2581distribute": 8443, "\u2581lineup": 8444, "\u2581orbit": 8445, "\u2581Guy": 8446, "\u2581snapped": 8447, "\u2581Gal": 8448, "\u2581runner": 8449, "cess": 8450, "\u2581Albanian": 8451, "\u2581Glen": 8452, "\u2581midnight": 8453, "\u2581mud": 8454, "\u2581villa": 8455, "aunt": 8456, "tas": 8457, "\u2581filter": 8458, "\u2581orchestra": 8459, "anna": 8460, "\u2581cure": 8461, "active": 8462, "\u2581Brigade": 8463, "\u2581Ji": 8464, "\u258173": 8465, "\u2581balanced": 8466, "max": 8467, "\u2581cancel": 8468, "\u2581plea": 8469, "\u2581references": 8470, "\u2581Pur": 8471, "\u2581sighed": 8472, "awa": 8473, "\u2581Dark": 8474, "yne": 8475, "\u2581Furthermore": 8476, "\u2581mature": 8477, "\u2581mines": 8478, "\u2581Very": 8479, "\u2581Drive": 8480, "\u2581pump": 8481, "\u2581Bou": 8482, "\u2581shame": 8483, "\u2581wise": 8484, "\u2581favour": 8485, "\u2581matching": 8486, "\u2581relax": 8487, "\u2581advise": 8488, "\u2581NT": 8489, "\u2581sits": 8490, "space": 8491, "\u2581exploration": 8492, "\u2581bare": 8493, "\u2581freed": 8494, "\u2581Photo": 8495, "\u2581merged": 8496, "\u2581Given": 8497, "\u2581shrugged": 8498, "\u2581marry": 8499, "\u2581shouted": 8500, "PL": 8501, "duct": 8502, "\u2581translated": 8503, "OH": 8504, "Vi": 8505, "\u2581questioning": 8506, "\u2581quake": 8507, "\u2581Player": 8508, "Ja": 8509, "\u2581bullet": 8510, "woman": 8511, "\u2581Pay": 8512, "EM": 8513, "\u2581inning": 8514, "\u2581serial": 8515, "\u2581genuine": 8516, "\u2581fatal": 8517, "\u2581locally": 8518, "plo": 8519, "\u2581Uganda": 8520, "\u2581themes": 8521, "MO": 8522, "sex": 8523, "\u2581exclusively": 8524, "\u2581divide": 8525, "\u2581Estate": 8526, "ines": 8527, "\u2581collecting": 8528, "ved": 8529, "Na": 8530, "\u2581bother": 8531, "\u2581whilst": 8532, "\u2581Chase": 8533, "\u2581tribes": 8534, "\u2581cow": 8535, "ced": 8536, "\u2581Death": 8537, "\u2581kit": 8538, "\u2581Tam": 8539, "\u2581affiliate": 8540, "\u2581boots": 8541, "\u258171": 8542, "Look": 8543, "elected": 8544, "\u2581monetary": 8545, "\u2581urging": 8546, "\u2581Direct": 8547, "\u2581evaluate": 8548, "nate": 8549, "\u2581lowered": 8550, "\u2581Beau": 8551, "ivity": 8552, "\u2581expedition": 8553, "\u2581arrange": 8554, "50,000": 8555, "\u2581Around": 8556, "\u2581capability": 8557, "host": 8558, "\u2581Cra": 8559, "\u2581habitat": 8560, "Time": 8561, "lip": 8562, "nk": 8563, "\u2581inventory": 8564, "\u2581chill": 8565, "\u2581math": 8566, "\u2581manufacture": 8567, "\u2581rivers": 8568, "\u2581boycott": 8569, "\u2581mentor": 8570, "\u2581Mason": 8571, "\u2581react": 8572, "\u2581exile": 8573, "\u2581whereas": 8574, "\u2581reminded": 8575, "\u2581spy": 8576, "\u2581Maj": 8577, "\u2581variable": 8578, "\u2581supplement": 8579, "heim": 8580, "\u2581walks": 8581, "nge": 8582, "hai": 8583, "mmer": 8584, "\u2581Twenty": 8585, "\u2581Intel": 8586, "\u2581pleasant": 8587, "vari": 8588, "\u2581Protestant": 8589, "\u2581Shop": 8590, "\u2581HERE": 8591, "\u2581advocates": 8592, "\u2581Baptist": 8593, "\u2581Blake": 8594, "\u2581curious": 8595, "\u2581Orthodox": 8596, "\u2581charm": 8597, "\u2581Beth": 8598, "\u258178": 8599, "\u2581suburb": 8600, "\u2581preventing": 8601, "\u2581Calif": 8602, "\u2581Baseball": 8603, "\u2581precious": 8604, "\u2581Cy": 8605, "\u2581spray": 8606, "mis": 8607, "Qu": 8608, "oe": 8609, "\u2581Mah": 8610, "\u2581visa": 8611, "\u2581tragedy": 8612, "\u2581rated": 8613, "\u2581reward": 8614, "\u2581adapted": 8615, "\u2581Ay": 8616, "\u2581businessman": 8617, "\u2581kissed": 8618, "\u2581edit": 8619, "\u2581Buddhist": 8620, "\u2581abilities": 8621, "\u2581immune": 8622, "\u25811951": 8623, "\u2581elegant": 8624, "TR": 8625, "\u2581historian": 8626, "\u2581insight": 8627, "\u2581Whit": 8628, "\u2581Knight": 8629, "order": 8630, "PR": 8631, "\u2581surname": 8632, "zen": 8633, "\u2581perceived": 8634, "\u2581assists": 8635, "\u2581Tha": 8636, "lah": 8637, "\u2581radar": 8638, "\u2581quotes": 8639, "\u2581disability": 8640, "\u2581Frederick": 8641, "\u2581artillery": 8642, "\u2581applies": 8643, "\u2581Comp": 8644, "\u2581accidents": 8645, "\u2581gesture": 8646, "\u2581technological": 8647, "\u2581Jake": 8648, "\u2581behaviour": 8649, "\u2581specify": 8650, "\u2581compact": 8651, "*": 8652, "\u2581bacteria": 8653, "CT": 8654, "\u2581legacy": 8655, "\u2581invite": 8656, "phe": 8657, "\u258195": 8658, "int": 8659, "\u2581trails": 8660, "\u2581scan": 8661, "ome": 8662, "\u2581leak": 8663, "cca": 8664, "\u2581stunning": 8665, "\u2581opens": 8666, "\u2581feeding": 8667, "\u2581structural": 8668, "\u2581consult": 8669, "nor": 8670, "\u2581generous": 8671, "\u2581aviation": 8672, "\u2581cheek": 8673, "\u2581Lower": 8674, "\u2581grey": 8675, "show": 8676, "rash": 8677, "lag": 8678, "\u2581Kon": 8679, "\u2581dramatically": 8680, "\u2581transformation": 8681, "\u2581coordinator": 8682, "\u2581seeks": 8683, "\u2581trailer": 8684, "SB": 8685, "\u2581accomplish": 8686, "\u2581obligation": 8687, "\u2581pitcher": 8688, "\u2581buyer": 8689, "etta": 8690, "\u2581simultaneously": 8691, "\u2581alter": 8692, "finals": 8693, "\u2581massacre": 8694, "\u2581Kas": 8695, "Gu": 8696, "pen": 8697, "\u2581Somalia": 8698, "\u2581rope": 8699, "lation": 8700, "\u2581$20": 8701, "\u2581rebounds": 8702, "\u2581diamond": 8703, "\u2581locate": 8704, "nn": 8705, "CB": 8706, "rit": 8707, "\u2581outer": 8708, "\u2581tenure": 8709, "\u2581rap": 8710, "\u2581Tell": 8711, "rou": 8712, "num": 8713, "\u2581grandfather": 8714, "\u2581Put": 8715, "\u2581Turner": 8716, "\u2581ID": 8717, "\u2581trace": 8718, "\u2581Nicholas": 8719, "\u2581Limited": 8720, "\u2581relay": 8721, "\u2581IV": 8722, "\u2581effectiveness": 8723, "\u2581disputed": 8724, "lov": 8725, "6,000": 8726, "\u2581servers": 8727, "\u2581Universal": 8728, "\u2581awesome": 8729, "\u2581Future": 8730, "\u2581Casino": 8731, "\u2581Rain": 8732, "\u2581catalog": 8733, "OO": 8734, "\u2581Med": 8735, "\u2581Garcia": 8736, "\u2581neighbor": 8737, "\u2581disputes": 8738, "\u2581triggered": 8739, "\u2581interviewed": 8740, "main": 8741, "\u2581Murphy": 8742, "\u2581populations": 8743, "4,000": 8744, "\u2581whisper": 8745, "vir": 8746, "\u2581Kor": 8747, "government": 8748, "\u2581shorter": 8749, "bingo": 8750, "\u2581unprecedented": 8751, "\u2581Var": 8752, "\u2581blew": 8753, "aba": 8754, "\u2581athletic": 8755, "\u2581entity": 8756, "\u2581contributing": 8757, "\u2581Princess": 8758, "\u2581avoided": 8759, "\u2581None": 8760, "\u2581corporation": 8761, "\u2581belonged": 8762, "\u2581Eight": 8763, "\u2581uranium": 8764, "\u2581beliefs": 8765, "\u2581AD": 8766, "eur": 8767, "ld": 8768, "osis": 8769, "\u2581helicopters": 8770, "\u2581extract": 8771, "\u2581finals": 8772, "\u2581penalties": 8773, "\u2581dawn": 8774, "\u2581Ring": 8775, "\u2581enhanced": 8776, "\u2581imported": 8777, "\u2581Poor": 8778, "\u2581Op": 8779, "AD": 8780, "\u2581suppose": 8781, "\u2581Reg": 8782, "\u2581Der": 8783, "\u2581condo": 8784, "FI": 8785, "Because": 8786, "\u2581Dance": 8787, "\u2581Nancy": 8788, "\u2581embrace": 8789, "\u2581Heritage": 8790, "\u2581FDA": 8791, "\u2581Common": 8792, "\u2581Guinea": 8793, "\u2581viagra": 8794, "anti": 8795, "\u2581resumed": 8796, "\u2581broker": 8797, "stage": 8798, "\u2581possibilities": 8799, "they": 8800, "\u2581scenario": 8801, "\u2581Conservative": 8802, "\u2581footage": 8803, "Jo": 8804, "lier": 8805, "\u2581clicking": 8806, "\u2581entries": 8807, "\u2581nights": 8808, "\u2581advances": 8809, "\u2581Vatican": 8810, "\u2581Neither": 8811, "\u2581Chamber": 8812, "\u2581Regiment": 8813, "\u2581Number": 8814, "\u2581pleaded": 8815, "arian": 8816, "dai": 8817, "\u2581Type": 8818, "\u2581anticipated": 8819, "mouth": 8820, "ids": 8821, "\u2581snap": 8822, "\u2581Table": 8823, "\u2581Blood": 8824, "chin": 8825, "\u2581surgeon": 8826, "Come": 8827, "zh": 8828, "CF": 8829, "\u2581FIFA": 8830, "\u2581ranch": 8831, "\u2581Malaysian": 8832, "RM": 8833, "\u2581youngest": 8834, "lad": 8835, "\u2581dirty": 8836, "\u2581keen": 8837, "feld": 8838, "\u2581gut": 8839, "\u2581hostage": 8840, "\u2581occasional": 8841, "\u258177": 8842, "\u2581initiated": 8843, "cost": 8844, "\u2581soap": 8845, "service": 8846, "\u2581Birmingham": 8847, "\u2581Cincinnati": 8848, "\u2581globe": 8849, "lat": 8850, "ook": 8851, "language": 8852, "\u2581Oakland": 8853, "GB": 8854, "\u2581suits": 8855, "\u2581Muhammad": 8856, "\u2581PM": 8857, "\u2581staged": 8858, "\u2581platforms": 8859, "\u2581Season": 8860, "\u2581Name": 8861, "\u2581Imp": 8862, "tting": 8863, "\u2581delivering": 8864, "\u2581differ": 8865, "\u2581rhythm": 8866, "\u2581liver": 8867, "\u2581Jacques": 8868, "\u25811900": 8869, "\u2581dip": 8870, "En": 8871, "\u2581retire": 8872, "\u2581sheep": 8873, "\u2581trackback": 8874, "\u2581deserve": 8875, "\u2581Jun": 8876, "\u2581twist": 8877, "\u2581undergraduate": 8878, "\u2581Turn": 8879, "\u2581convoy": 8880, "\u2581scholarship": 8881, "exp": 8882, "\u2581decent": 8883, "buy": 8884, "\u2581legally": 8885, "\u2581lenders": 8886, "\u25811918": 8887, "\u2581Magic": 8888, "\u2581Ted": 8889, "\u2581corresponding": 8890, "cious": 8891, "\u2581futures": 8892, "\u2581Joint": 8893, "\u2581Zone": 8894, "\u2581arguing": 8895, "aga": 8896, "coming": 8897, "\u2581accessories": 8898, "\u2581shaking": 8899, "\u2581quarters": 8900, "\u2581Argentine": 8901, "\u2581Croatian": 8902, "\u2581IMF": 8903, "\u2581Pete": 8904, "\u2581retailers": 8905, "core": 8906, "\u2581Something": 8907, "\u2581projected": 8908, "\u2581experiments": 8909, "\u2581Technical": 8910, "ique": 8911, "\u2581suppliers": 8912, "\u2581Bag": 8913, "\u2581Hunt": 8914, "CU": 8915, "\u2581Workers": 8916, "\u2581contacted": 8917, "\u2581poem": 8918, "thro": 8919, "\u2581Survey": 8920, "\u2581disclosure": 8921, "\u2581desktop": 8922, "\u2581designers": 8923, "inger": 8924, "\u2581Castro": 8925, "\u2581Rachel": 8926, "\u2581painter": 8927, "\u2581statue": 8928, "\u2581bug": 8929, "\u2581advisor": 8930, "\u2581Intelligence": 8931, "logy": 8932, "\u2581cloth": 8933, "evo": 8934, "\u2581silk": 8935, "grand": 8936, "\u2581advantages": 8937, "base": 8938, "\u258120,000": 8939, "\u2581wash": 8940, "\u2581Musharraf": 8941, "\u2581distinction": 8942, "\u2581barrier": 8943, "\u2581intensity": 8944, "aria": 8945, "bang": 8946, "\u2581appealed": 8947, "\u2581highlight": 8948, "\u2581pipe": 8949, "\u2581uncertainty": 8950, "CH": 8951, "\u2581Vincent": 8952, "\u2581Cairo": 8953, "ose": 8954, "\u2581Annual": 8955, "\u2581fool": 8956, "\u2581hills": 8957, "\u2581Mari": 8958, "\u2581opt": 8959, "slots": 8960, "miss": 8961, "\u2581chairs": 8962, "\u2581spaces": 8963, "iva": 8964, "\u2581tribe": 8965, "ahl": 8966, "\u2581Commander": 8967, "\u2581Aaron": 8968, "\u2581Ridge": 8969, "\u2581Theater": 8970, "\u2581Laura": 8971, "ith": 8972, "\u2581Want": 8973, "\u2581flavor": 8974, "\u2581contend": 8975, "\u2581toilet": 8976, "\u2581punch": 8977, "\u2581remainder": 8978, "\u2581Metropolitan": 8979, "\u2581widow": 8980, "\u2581investing": 8981, "\u2581fantasy": 8982, "\u2581explosives": 8983, "\u2581dragon": 8984, "\u2581realistic": 8985, "bay": 8986, "\u2581lifting": 8987, "Sha": 8988, "\u2581module": 8989, "\u2581offset": 8990, "\u2581traditions": 8991, "\u2581debts": 8992, "\u2581Jam": 8993, "\u2581nowhere": 8994, "\u2581observation": 8995, "\u2581freeze": 8996, "\u2581bloc": 8997, "\u2581oral": 8998, "Did": 8999, "\u2581musician": 9000, "\u2581Ker": 9001, "NO": 9002, "hl": 9003, "\u2581indicating": 9004, "\u2581Kay": 9005, "\u2581regiment": 9006, "\u2581Steel": 9007, "cid": 9008, "\u2581Cas": 9009, "\u2581Century": 9010, "\u2581rookie": 9011, "\u2581wh": 9012, "\u2581thread": 9013, "PD": 9014, "\u2581bent": 9015, "\u2581Kabul": 9016, "\u2581Ever": 9017, "\u2581shipped": 9018, "\u2581Rather": 9019, "\u2581belongs": 9020, "\u2581severely": 9021, "\u25811992,": 9022, "SO": 9023, "\u2581robust": 9024, "ject": 9025, "\u2581Helen": 9026, "lyn": 9027, "\u2581cre": 9028, "TP": 9029, "rk": 9030, "\u2581Stanford": 9031, "\u2581counted": 9032, "Ex": 9033, "\u2581grasp": 9034, "utter": 9035, "\u2581oppose": 9036, "\u2581Keith": 9037, "\u2581loving": 9038, "\u2581sovereignty": 9039, "\u2581110": 9040, "\u2581Lind": 9041, "GO": 9042, "\u2581Jiang": 9043, "hara": 9044, "\u2581veto": 9045, "\u2581exchanges": 9046, "\u2581advocate": 9047, "\u2581Raj": 9048, "ough": 9049, "\u2581clan": 9050, "\u2581observe": 9051, "\u2581Marie": 9052, "cru": 9053, "$3": 9054, "\u2581se": 9055, "\u2581wholesale": 9056, "\u2581SC": 9057, "\u2581motivation": 9058, "pat": 9059, "\u2581fortune": 9060, "\u2581colony": 9061, "\u2581Race": 9062, "\u2581deposits": 9063, "fold": 9064, "\u2581gonna": 9065, "\u2581obligations": 9066, "\u2581sweep": 9067, "\u2581connecting": 9068, "\u2581Thi": 9069, "agh": 9070, "\u2581toxic": 9071, "\u2581Dam": 9072, "lets": 9073, "\u2581triumph": 9074, "tics": 9075, "\u2581rifle": 9076, "\u2581Late": 9077, "\u2581Tur": 9078, "\u2581Nobel": 9079, "\u2581demonstrations": 9080, "\u2581referee": 9081, "path": 9082, "\u2581wheat": 9083, "\u258174": 9084, "gna": 9085, "\u2581killings": 9086, "\u2581delicate": 9087, "\u2581Marketing": 9088, "ars": 9089, "trip": 9090, "\u2581elbow": 9091, "\u2581lean": 9092, "\u2581consciousness": 9093, "\u2581Nat": 9094, "\u2581Server": 9095, "\u2581Box": 9096, "\u2581Bull": 9097, "After": 9098, "\u2581homeless": 9099, "\u2581mysterious": 9100, "\u2581Money": 9101, "\u2581Ronald": 9102, "fly": 9103, "\u2581Yi": 9104, "\u2581purchases": 9105, "ois": 9106, "\u2581controlling": 9107, "aid": 9108, "taking": 9109, "emi": 9110, "\u2581Reagan": 9111, "Da": 9112, "\u2581Dead": 9113, "\u2581united": 9114, "\u2581inch": 9115, "\u2581accepting": 9116, "\u2581Pick": 9117, "\u2581receives": 9118, "\u2581Nine": 9119, "\u2581Munich": 9120, "\u2581mere": 9121, "\u2581Made": 9122, "\u2581Eve": 9123, "tum": 9124, "\u2581Globe": 9125, "\u2581recipes": 9126, "\u2581des": 9127, "\u2581Mul": 9128, "\u2581rings": 9129, "\u2581Vietnamese": 9130, "\u2581bet": 9131, "Thank": 9132, "\u2581Hans": 9133, "\u2581Need": 9134, "\u2581worries": 9135, "\u2581elect": 9136, "\u2581Meeting": 9137, "ico": 9138, "rite": 9139, "\u2581Lieutenant": 9140, "\u2581deciding": 9141, "\u2581Eddie": 9142, "imi": 9143, "\u2581Shar": 9144, "\u2581pole": 9145, "\u2581drill": 9146, "\u2581conspiracy": 9147, "Billboard": 9148, "\u2581Cambodia": 9149, "\u2581cookies": 9150, "\u2581fe": 9151, "\u2581telecommunicati": 9152, "\u2581farming": 9153, "\u2581nod": 9154, "osa": 9155, "\u2581thereby": 9156, "\u2581tale": 9157, "fall": 9158, "\u2581francs": 9159, "\u2581weakness": 9160, "\u2581empire": 9161, "\u2581Rico": 9162, "\u2581reflection": 9163, "road": 9164, "\u2581Lt": 9165, "\u2581Nevertheless": 9166, "PI": 9167, "\u2581privately": 9168, "\u2581clash": 9169, "\u2581Nigerian": 9170, "\u2581affecting": 9171, "blo": 9172, "\u2581relaxed": 9173, "\u2581Jamie": 9174, "\u25811938": 9175, "\u2581chaos": 9176, "\u2581Vel": 9177, "\u2581enforce": 9178, "\u2581gunmen": 9179, "\u25811991,": 9180, "ude": 9181, "\u2581grim": 9182, "\u2581planted": 9183, "iel": 9184, "\u2581voices": 9185, "\u2581laughing": 9186, "\u2581scattered": 9187, "\u2581Hungarian": 9188, "\u2581photographer": 9189, "\u2581Belgrade": 9190, "\u25811936": 9191, "\u2581Description": 9192, "\u2581lined": 9193, "shore": 9194, "\u2581productivity": 9195, "\u2581Yang": 9196, "\u2581afterwards": 9197, "ender": 9198, "\u2581farms": 9199, "ific": 9200, "\u2581neutral": 9201, "\u2581theft": 9202, "\u2581pitched": 9203, "\u2581pope": 9204, "\u2581Medal": 9205, "income": 9206, "\u2581woods": 9207, "UP": 9208, "vie": 9209, "\u2581Study": 9210, "\u2581sealed": 9211, "\u2581Orlando": 9212, "zar": 9213, "\u2581recommendation": 9214, "selling": 9215, "cad": 9216, "nell": 9217, "ages": 9218, "\u2581spotted": 9219, "\u2581Construction": 9220, "\u2581seemingly": 9221, "\u2581modify": 9222, "\u2581gauge": 9223, "hay": 9224, "\u2581Virgin": 9225, "\u2581binding": 9226, "\u2581sake": 9227, "China": 9228, "\u2581noble": 9229, "thy": 9230, "lf": 9231, "\u2581grin": 9232, "\u2581Leader": 9233, "elect": 9234, "digit": 9235, "\u2581accusations": 9236, "uv": 9237, "ech": 9238, "itt": 9239, "\u2581spreading": 9240, "\u2581dwell": 9241, "gor": 9242, "\u2581sheets": 9243, "3,000": 9244, "igan": 9245, "\u2581jeans": 9246, "\u2581accent": 9247, "\u2581$50": 9248, "\u2581goalkeeper": 9249, "\u2581navigation": 9250, "\u2581guerrillas": 9251, "\u2581Bin": 9252, "sol": 9253, "\u2581merchant": 9254, "\u2581Private": 9255, "\u2581Chechnya": 9256, "\u2581aides": 9257, "raw": 9258, "\u2581Springs": 9259, "\u2581aide": 9260, "pir": 9261, "\u2581Yan": 9262, "\u2581clay": 9263, "\u2581optimistic": 9264, "STORY": 9265, "WA": 9266, "\u2581leaf": 9267, "\u2581customs": 9268, "\u2581blank": 9269, "ush": 9270, "\u2581economists": 9271, "ges": 9272, "sai": 9273, "\u2581refund": 9274, "gs": 9275, "\u2581intelligent": 9276, "\u2581Fat": 9277, "\u2581photograph": 9278, "\u2581indigenous": 9279, "\u2581heir": 9280, "\u2581cried": 9281, "\u2581Fur": 9282, "\u2581Course": 9283, "\u2581Mountains": 9284, "\u2581assignment": 9285, "\u2581Fish": 9286, "\u2581Newspapers": 9287, "bach": 9288, "\u2581Worth": 9289, "\u2581tense": 9290, "illo": 9291, "ML": 9292, "\u2581Arsenal": 9293, "\u2581extending": 9294, "\u2581logic": 9295, "\u2581Northwest": 9296, "\u2581launching": 9297, "group": 9298, "\u2581grows": 9299, "\u2581mold": 9300, "CR": 9301, "\u2581doubled": 9302, "\u2581Gabriel": 9303, "\u2581excitement": 9304, "\u2581characterized": 9305, "\u2581Dakota": 9306, "\u2581CNN": 9307, "\u25811937": 9308, "\u2581counting": 9309, "\u2581END": 9310, "\u2581Lakers": 9311, "\u2581wished": 9312, "\u2581bishop": 9313, "odor": 9314, "\u2581Zhang": 9315, "\u2581risen": 9316, "\u2581folder": 9317, "\u2581owns": 9318, "\u2581explosive": 9319, "\u2581Planning": 9320, "\u2581emotion": 9321, "\u2581RE": 9322, "ural": 9323, "\u2581plates": 9324, "\u2581novels": 9325, "dell": 9326, "\u2581takeover": 9327, "\u2581fiber": 9328, "human": 9329, "\u2581surviving": 9330, "\u2581crowded": 9331, "\u2581Large": 9332, "\u2581exploit": 9333, "ancy": 9334, "\u2581Chrysler": 9335, "scu": 9336, "\u2581glasses": 9337, "gri": 9338, "\u2581Chad": 9339, "\u2581phenomenon": 9340, "\u2581separation": 9341, "\u2581Scha": 9342, "\u2581Vin": 9343, "\u2581flee": 9344, "\u2581et": 9345, "\u2581myth": 9346, "SD": 9347, "\u2581Nature": 9348, "\u2581Sho": 9349, "\u2581feat": 9350, "\u2581caution": 9351, "\u2581hungry": 9352, "\u2581Barr": 9353, "\u2581Bulgaria": 9354, "\u2581complain": 9355, "\u2581precise": 9356, "\u2581Visit": 9357, "\u2581SEC": 9358, "\u2581Urban": 9359, "\u2581spur": 9360, "\u2581Lisa": 9361, "\u2581joke": 9362, "\u2581workplace": 9363, "iest": 9364, "\u2581battles": 9365, "\u2581disclose": 9366, "\u2581Books": 9367, "\u2581prisoner": 9368, "Mr": 9369, "\u2581fifty": 9370, "\u2581prop": 9371, "\u2581consultation": 9372, "Am": 9373, "\u2581Pol": 9374, "\u2581specialists": 9375, "\u2581speaks": 9376, "\u2581canceled": 9377, "\u2581PDF": 9378, "zon": 9379, "\u2581volumes": 9380, "door": 9381, "\u2581protocol": 9382, "\u2581motivated": 9383, "\u2581Ry": 9384, "\u2581Culture": 9385, "\u2581Track": 9386, "\u2581Persian": 9387, "BR": 9388, "\u2581Pearl": 9389, "abad": 9390, "\u2581McG": 9391, "rri": 9392, "\u2581tub": 9393, "\u2581BA": 9394, "brand": 9395, "\u2581anchor": 9396, "\u2581Nation": 9397, "\u2581softly": 9398, "aught": 9399, "lk": 9400, "\u2581Jennifer": 9401, "\u2581batteries": 9402, "\u2581Danny": 9403, "MR": 9404, "\u2581separately": 9405, "WE": 9406, "\u2581distinguished": 9407, "\u2581Latino": 9408, "\u2581Josh": 9409, "pit": 9410, "\u2581Ivan": 9411, "\u2581stiff": 9412, "\u2581Libya": 9413, "jack": 9414, "\u2581absorb": 9415, "\u2581keys": 9416, "case": 9417, "\u2581Working": 9418, "\u2581Hockey": 9419, "strong": 9420, "\u2581Mau": 9421, "\u2581composite": 9422, "\u2581Almost": 9423, "tail": 9424, "\u2581epi": 9425, "\u2581arrests": 9426, "fusion": 9427, "\u2581genre": 9428, "\u2581diagnosis": 9429, "\u2581commentary": 9430, "May": 9431, "\u2581testified": 9432, "\u2581approaching": 9433, "\u2581Welcome": 9434, "vas": 9435, "\u2581construct": 9436, "\u2581crackdown": 9437, "\u2581Bradley": 9438, "\u2581Secret": 9439, "900": 9440, "gli": 9441, "\u2581Cameron": 9442, "\u2581arise": 9443, "\u2581panels": 9444, "\u2581lung": 9445, "\u2581lightly": 9446, "first": 9447, "\u2581physics": 9448, "\u2581Ok": 9449, "lton": 9450, "\u2581Bangkok": 9451, "\u2581Horse": 9452, "\u2581corrupt": 9453, "\u2581pray": 9454, "\u2581Hillary": 9455, "\u2581Whatever": 9456, "\u2581Dubai": 9457, "\u2581oven": 9458, "\u2581sang": 9459, "\u2581dated": 9460, "\u2581donors": 9461, "pes": 9462, "\u2581secrets": 9463, "\u2581basement": 9464, "\u2581loves": 9465, "print": 9466, "\u2581Nebraska": 9467, "\u2581wars": 9468, "cla": 9469, "\u2581adaptation": 9470, "\u2581demon": 9471, "\u2581strongest": 9472, "\u2581manuscript": 9473, "\u2581sank": 9474, "money": 9475, "pac": 9476, "\u2581flooding": 9477, "MORE": 9478, "\u2581dive": 9479, "\u2581thrust": 9480, "\u2581ports": 9481, "uro": 9482, "\u2581dishes": 9483, "\u2581rebound": 9484, "\u2581Share": 9485, "\u2581intersection": 9486, "self": 9487, "\u2581decides": 9488, "\u2581climbing": 9489, "wheel": 9490, "\u2581skilled": 9491, "\u2581Collection": 9492, "dow": 9493, "three": 9494, "\u2581addressing": 9495, "\u2581lobby": 9496, "\u2581maintains": 9497, "sign": 9498, "thirds": 9499, "\u2581Lucas": 9500, "\u2581Heat": 9501, "\u2581anonymous": 9502, "\u2581diameter": 9503, "\u2581Mohammad": 9504, "\u2581Tournament": 9505, "\u2581freely": 9506, "\u2581taxi": 9507, "\u2581Circuit": 9508, "\u2581brush": 9509, "\u2581narrative": 9510, "\u25811000": 9511, "ctu": 9512, "FC": 9513, "\u2581beneficial": 9514, "\u2581Qatar": 9515, "\u2581travelers": 9516, "\u2581Works": 9517, "\u2581apartments": 9518, "\u2581uncertain": 9519, "TO": 9520, "\u2581corridor": 9521, "\u2581libraries": 9522, "Sa": 9523, "\u2581habit": 9524, "\u2581explaining": 9525, "\u2581container": 9526, "comb": 9527, "\u2581Hudson": 9528, "\u2581Chechen": 9529, "\u25811917": 9530, "\u2581Language": 9531, "\u2581Jefferson": 9532, "\u2581recipient": 9533, "hir": 9534, "\u2581ballots": 9535, "hop": 9536, "\u2581informal": 9537, "dec": 9538, "jackpot": 9539, "\u2581spill": 9540, "\u2581murdered": 9541, "\u2581exceed": 9542, "outs": 9543, "aver": 9544, "\u2581faint": 9545, "\u2581cats": 9546, "\u2581crying": 9547, "\u2581suggestion": 9548, "ics": 9549, "dine": 9550, "\u2581assure": 9551, "\u2581Yahoo": 9552, "being": 9553, "Connor": 9554, "\u2581clip": 9555, "Di": 9556, "\u2581implementing": 9557, "\u2581Eventually": 9558, "ient": 9559, "\u2581leap": 9560, "\u2581Mis": 9561, "awn": 9562, "\u2581pharmaceutical": 9563, "\u2581Eli": 9564, "haz": 9565, "bell": 9566, "\u2581recordings": 9567, "\u2581switched": 9568, "ense": 9569, "\u2581lo": 9570, "\u2581insist": 9571, "stat": 9572, "\u2581vaccine": 9573, "\u2581implications": 9574, "DE": 9575, "\u2581Wo": 9576, "\u2581treating": 9577, "\u2581demo": 9578, "\u2581Talk": 9579, "HO": 9580, "\u2581grateful": 9581, "shing": 9582, "flow": 9583, "\u2581factories": 9584, "\u2581sing": 9585, "\u2581700": 9586, "\u2581warehouse": 9587, "\u2581honey": 9588, "\u2581hostile": 9589, "\u2581Paper": 9590, "\u2581hence": 9591, "\u2581lecture": 9592, "cen": 9593, "\u2581Alice": 9594, "\u2581Map": 9595, "\u2581Arabic": 9596, "craft": 9597, "\u2581boyfriend": 9598, "hin": 9599, "dog": 9600, "\u2581scream": 9601, "\u2581evident": 9602, "\u2581companion": 9603, "\u2581Bab": 9604, "\u2581Ice": 9605, "\u2581Cash": 9606, "\u2581Eu": 9607, "\u2581prohibited": 9608, "\u2581spouse": 9609, "\u2581summary": 9610, "\u2581Arena": 9611, "\u2581Chair": 9612, "have": 9613, "\u2581Michel": 9614, "\u2581ordering": 9615, "Even": 9616, "auto": 9617, "oy": 9618, "PE": 9619, "ici": 9620, "\u2581revenge": 9621, "\u2581compiled": 9622, "\u2581Colonel": 9623, "\u2581courage": 9624, "\u2581wounds": 9625, "\u2581Think": 9626, "ifying": 9627, "\u2581Richmond": 9628, "\u2581nerve": 9629, "dio": 9630, "\u2581talented": 9631, "\u2581Naval": 9632, "60,000": 9633, "\u2581zones": 9634, "\u2581hunger": 9635, "\u2581persuade": 9636, "\u2581sentences": 9637, "\u2581confrontation": 9638, "\u2581boundary": 9639, "\u2581Motors": 9640, "\u2581cinema": 9641, "\u2581ultra": 9642, "\u2581assisted": 9643, "\u2581Reed": 9644, "TER": 9645, "\u2581nearest": 9646, "\u2581interact": 9647, "\u2581Defence": 9648, "\u2581organizing": 9649, "\u2581Chirac": 9650, "Ch": 9651, "\u2581fulfill": 9652, "\u2581federation": 9653, "\u2581Falls": 9654, "\u2581possess": 9655, "cott": 9656, "\u2581workshops": 9657, "\u2581Hang": 9658, "\u2581grandmother": 9659, "\u2581cult": 9660, "\u2581affiliated": 9661, "\u2581Montana": 9662, "rent": 9663, "\u2581Carol": 9664, "\u2581Dragon": 9665, "\u2581Sport": 9666, "sub": 9667, "\u2581achieving": 9668, "\u2581Cri": 9669, "\u2581convey": 9670, "script": 9671, "race": 9672, "\u2581absent": 9673, "\u2581disappear": 9674, "\u2581searched": 9675, "cio": 9676, "lea": 9677, "\u2581Fine": 9678, "\u2581distinguish": 9679, "\u2581wheels": 9680, "uma": 9681, "\u2581sponsor": 9682, "\u2581architectural": 9683, "green": 9684, "\u2581institutional": 9685, "\u2581happiness": 9686, "ema": 9687, "\u2581Mail": 9688, "Mart": 9689, "\u2581Tele": 9690, "\u2581lasting": 9691, "HL": 9692, "\u2581Tibet": 9693, "BL": 9694, "\u2581Res": 9695, "\u2581targeting": 9696, "profile": 9697, "\u2581erupted": 9698, "second": 9699, "\u2581hopefully": 9700, "\u2581Honda": 9701, "\u2581Kur": 9702, "\u2581Fisher": 9703, "ALL": 9704, "mah": 9705, "mad": 9706, "\u2581instructor": 9707, "\u2581progressive": 9708, "\u2581artwork": 9709, "\u2581tick": 9710, "sley": 9711, "\u2581Tang": 9712, "\u2581subtle": 9713, "DB": 9714, "\u2581psycho": 9715, "\u2581audiences": 9716, "\u2581bum": 9717, "\u2581limitations": 9718, "\u2581Armstrong": 9719, "\u2581kidnapping": 9720, "\u2581precisely": 9721, "\u2581mask": 9722, "Get": 9723, "\u2581User": 9724, "\u2581guided": 9725, "EST": 9726, "\u2581peacekeeping": 9727, "\u2581HD": 9728, "\u2581Ask": 9729, "\u2581Oliver": 9730, "\u2581neo": 9731, "\u2581urgent": 9732, "\u2581Julian": 9733, "\u258182": 9734, "\u2581layers": 9735, "itive": 9736, "\u2581creatures": 9737, "\u2581Tai": 9738, "\u2581regulators": 9739, "\u2581diagnosed": 9740, "\u2581cement": 9741, "hua": 9742, "rine": 9743, "\u2581naked": 9744, "\u2581analyze": 9745, "\u2581Racing": 9746, "\u2581suite": 9747, "\u2581Upper": 9748, "\u2581safeguard": 9749, "\u2581conversations": 9750, "\u2581chase": 9751, "\u2581syndrome": 9752, "\u2581harvest": 9753, "\u2581drunk": 9754, "\u2581visitor": 9755, "\u2581editing": 9756, "eno": 9757, "\u2581pursuing": 9758, "\u2581concentrated": 9759, "wal": 9760, "\u2581ethics": 9761, "\u00b0": 9762, "\u2581buzz": 9763, "\u2581witnessed": 9764, "\u2581EP": 9765, "\u2581Off": 9766, "\u2581Website": 9767, "\u2581bomber": 9768, "\u2581suspicion": 9769, "\u2581Jar": 9770, "\u2581incumbent": 9771, "idi": 9772, "hawk": 9773, "\u2581cluster": 9774, "oph": 9775, "\u2581Left": 9776, "pol": 9777, "\u25811933": 9778, "\u2581Peninsula": 9779, "\u2581imagination": 9780, "mission": 9781, "\u2581throne": 9782, "\u2581Len": 9783, "\u2581thy": 9784, "sil": 9785, "\u2581Multi": 9786, "\u2581genes": 9787, "\u2581finest": 9788, "LD": 9789, "\u2581circles": 9790, "stan": 9791, "\u2581Stri": 9792, "\u2581exceptional": 9793, "\u2581Print": 9794, "\u2581creator": 9795, "\u2581distinctive": 9796, "nick": 9797, "\u2581columns": 9798, "\u2581protective": 9799, "\u2581Poll": 9800, "\u2581Sab": 9801, "\u2581costly": 9802, "liter": 9803, "loy": 9804, "\u2581ambitious": 9805, "hall": 9806, "wy": 9807, "\u2581Cancer": 9808, "ander": 9809, "bil": 9810, "\u2581Ralph": 9811, "\u2581spectrum": 9812, "\u2581fires": 9813, "hat": 9814, "gging": 9815, "\u2581Neil": 9816, "hem": 9817, "thi": 9818, "9,000": 9819, "\u2581acute": 9820, "\u2581console": 9821, "\u2581drafted": 9822, "\u2581Operation": 9823, "\u2581Dur": 9824, "ART": 9825, "\u2581clouds": 9826, "\u2581gardens": 9827, "tun": 9828, "\u2581animation": 9829, "\u2581Rural": 9830, "\u2581polling": 9831, "\u2581Gonzalez": 9832, "tia": 9833, "VA": 9834, "\u2581balloon": 9835, "\u2581grades": 9836, "\u2581dental": 9837, "\u2581kidnapped": 9838, "\u2581drum": 9839, "\u2581doubles": 9840, "\u2581Product": 9841, "\u2581Case": 9842, "\u2581Learning": 9843, "\u2581comp": 9844, "\u2581reveals": 9845, "\u2581Imperial": 9846, "\u2581Legislature": 9847, "\u2581computing": 9848, "\u2581engaging": 9849, "IE": 9850, "\u2581delays": 9851, "\u2581violated": 9852, "\u2581differently": 9853, "\u2581mph": 9854, "oper": 9855, "\u2581dig": 9856, "\u2581UEFA": 9857, "\u2581theories": 9858, "\u2581duration": 9859, "open": 9860, "\u2581pact": 9861, "\u2581Flight": 9862, "\u2581fails": 9863, "phon": 9864, "bee": 9865, "\u2581strictly": 9866, "\u2581Double": 9867, "\u2581Pad": 9868, "\u2581Dy": 9869, "\u2581reluctant": 9870, "\u2581SS": 9871, "\u2581stretched": 9872, "\u2581independently": 9873, "\u2581WASHINGTON": 9874, "\u2581detective": 9875, "\u2581Armed": 9876, "\u2581texture": 9877, "tered": 9878, "IR": 9879, "\u2581reactions": 9880, "\u2581hydro": 9881, "Mu": 9882, "\u2581quantity": 9883,
[...]
